{"version":"1.0","truncation":null,"padding":null,"added_tokens":[{"id":0,"content":"<unk>","single_word":false,"lstrip":false,"rstrip":false,"normalized":false,"special":true}],"normalizer":null,"pre_tokenizer":{"type":"ByteLevel","add_prefix_space":false,"trim_offsets":true,"use_regex":true},"post_processor":null,"decoder":{"type":"ByteLevel","add_prefix_space":true,"trim_offsets":true,"use_regex":true},"model":{"type":"BPE","dropout":null,"unk_token":"<unk>","continuing_subword_prefix":null,"end_of_word_suffix":null,"fuse_unk":false,"byte_fallback":false,"ignore_merges":false,"vocab":{"<unk>":0,"!":1,"\"":2,"#":3,"$":4,"%":5,"&":6,"'":7,"(":8,")":9,"*":10,"+":11,",":12,"-":13,".":14,"/":15,"0":16,"1":17,"2":18,"3":19,"4":20,"5":21,"6":22,"7":23,"8":24,"9":25,":":26,";":27,"<":28,"=":29,">":30,"?":31,"@":32,"A":33,"B":34,"C":35,"D":36,"E":37,"F":38,"G":39,"H":40,"I":41,"J":42,"K":43,"L":44,"M":45,"N":46,"O":47,"P":48,"Q":49,"R":50,"S":51,"T":52,"U":53,"V":54,"W":55,"X":56,"Y":57,"Z":58,"[":59,"\\":60,"]":61,"^":62,"_":63,"`":64,"a":65,"b":66,"c":67,"d":68,"e":69,"f":70,"g":71,"h":72,"i":73,"j":74,"k":75,"l":76,"m":77,"n":78,"o":79,"p":80,"q":81,"r":82,"s":83,"t":84,"u":85,"v":86,"w":87,"x":88,"y":89,"z":90,"{":91,"|":92,"}":93,"~":94,"¡":95,"¢":96,"£":97,"¤":98,"¥":99,"¦":100,"§":101,"¨":102,"©":103,"ª":104,"«":105,"¬":106,"®":107,"¯":108,"°":109,"±":110,"²":111,"³":112,"´":113,"µ":114,"¶":115,"·":116,"¸":117,"¹":118,"º":119,"»":120,"¼":121,"½":122,"¾":123,"¿":124,"À":125,"Á":126,"Â":127,"Ã":128,"Ä":129,"Å":130,"Æ":131,"Ç":132,"È":133,"É":134,"Ê":135,"Ë":136,"Ì":137,"Í":138,"Î":139,"Ï":140,"Ð":141,"Ñ":142,"Ò":143,"Ó":144,"Ô":145,"Õ":146,"Ö":147,"×":148,"Ø":149,"Ù":150,"Ú":151,"Û":152,"Ü":153,"Ý":154,"Þ":155,"ß":156,"à":157,"á":158,"â":159,"ã":160,"ä":161,"å":162,"æ":163,"ç":164,"è":165,"é":166,"ê":167,"ë":168,"ì":169,"í":170,"î":171,"ï":172,"ð":173,"ñ":174,"ò":175,"ó":176,"ô":177,"õ":178,"ö":179,"÷":180,"ø":181,"ù":182,"ú":183,"û":184,"ü":185,"ý":186,"þ":187,"ÿ":188,"Ā":189,"ā":190,"Ă":191,"ă":192,"Ą":193,"ą":194,"Ć":195,"ć":196,"Ĉ":197,"ĉ":198,"Ċ":199,"ċ":200,"Č":201,"č":202,"Ď":203,"ď":204,"Đ":205,"đ":206,"Ē":207,"ē":208,"Ĕ":209,"ĕ":210,"Ė":211,"ė":212,"Ę":213,"ę":214,"Ě":215,"ě":216,"Ĝ":217,"ĝ":218,"Ğ":219,"ğ":220,"Ġ":221,"ġ":222,"Ģ":223,"ģ":224,"Ĥ":225,"ĥ":226,"Ħ":227,"ħ":228,"Ĩ":229,"ĩ":230,"Ī":231,"ī":232,"Ĭ":233,"ĭ":234,"Į":235,"į":236,"İ":237,"ı":238,"Ĳ":239,"ĳ":240,"Ĵ":241,"ĵ":242,"Ķ":243,"ķ":244,"ĸ":245,"Ĺ":246,"ĺ":247,"Ļ":248,"ļ":249,"Ľ":250,"ľ":251,"Ŀ":252,"ŀ":253,"Ł":254,"ł":255,"Ń":256,"Ġt":257,"he":258,"Ġa":259,"in":260,"Ġthe":261,"er":262,"on":263,"Ġ,":264,"re":265,"Ġs":266,"ed":267,"Ġw":268,"Ġo":269,"nd":270,"at":271,"Ġ.":272,"or":273,"en":274,"Ġc":275,"it":276,"Ġf":277,"is":278,"es":279,"ar":280,"Ġb":281,"Ġof":282,"an":283,"Ġin":284,"al":285,"ing":286,"Ġp":287,"as":288,"Ġand":289,"Ġto":290,"ic":291,"ro":292,"Ġm":293,"Ġd":294,"Ġh":295,"ion":296,"le":297,"ou":298,"ĠT":299,"Ġre":300,"il":301,"ĠS":302,"ent":303,"Ġ\"":304,"Ġ1":305,"ĠA":306,"Ġth":307,"st":308,"el":309,"Ġl":310,"Ġ@":311,"ĠC":312,"om":313,"Ġe":314,"Ġ=":315,"am":316,"Ġn":317,"ad":318,"ac":319,"Ġwas":320,"ĠM":321,"ec":322,"Ġon":323,"ĠB":324,"ly":325,"ur":326,"Ġ'":327,"et":328,"id":329,"ol":330,"Ġg":331,"im":332,"-@":333,"Ġ@-@":334,"Ġfor":335,"ir":336,"ig":337,"iv":338,"ot":339,"ter":340,"ut":341,"ĠThe":342,"ĠI":343,"ĠH":344,"Ġas":345,"us":346,"ow":347,"ith":348,"ay":349,"Ġst":350,"Ġ2":351,"ĠP":352,"Ġhe":353,"ver":354,"ation":355,"Ġwith":356,"Ġbe":357,"Ġthat":358,"ĠR":359,"ce":360,"un":361,"ĠD":362,"em":363,"Ġwh":364,"ch":365,"Ġby":366,"th":367,"ĠW":368,"Ġal":369,"Ġ)":370,"ĠF":371,"Ġ(":372,"ul":373,"Ġis":374,"Ġcon":375,"ers":376,"Ġat":377,"ĠL":378,"ĠG":379,"ct":380,"ra":381,"ĠN":382,"os":383,"Ġan":384,"Ġ19":385,"Ġit":386,"her":387,"rom":388,"and":389,"um":390,"est":391,"00":392,"ĠJ":393,"Ġhis":394,"ag":395,"av":396,"ain":397,"ĠE":398,"ri":399,"od":400,"Ġfrom":401,"ist":402,"Ġcom":403,"Ġv":404,"Ġpro":405,"op":406,"ill":407,"ore":408,"ĠO":409,"if":410,"ld":411,"up":412,"Ġr":413,"ew":414,"ere":415,"res":416,"igh":417,"ies":418,"Ġde":419,"ber":420,"art":421,"ard":422,"ort":423,"Ġse":424,"ich":425,"Ġwere":426,"ate":427,"all":428,"ak":429,"ant":430,"oc":431,"ud":432,"ap":433,"Ġex":434,"qu":435,"ong":436,"ab":437,"Ġch":438,"Ġor":439,"gh":440,"ear":441,"ess":442,"ated":443,"ĠK":444,"Ġpl":445,"Ġsh":446,"ity":447,"ip":448,"ive":449,"ame":450,"Ġâ":451,"Ġhad":452,"ect":453,"ĠU":454,"ack":455,"ĠIn":456,"ĠâĢ":457,"Ġsu":458,"ast":459,"se":460,"red":461,"Ġk":462,"ĠSt":463,"ge":464,"Ġwhich":465,"our":466,"ment":467,"Ġle":468,"und":469,"Ġare":470,"ian":471,"ov":472,"ial":473,"Ġnot":474,"ell":475,"Ġsp":476,"ost":477,"Ġy":478,"ight":479,"ia":480,"ord":481,"ust":482,"ary":483,"ine":484,"ther":485,"pt":486,"rit":487,"Ġ3":488,"oun":489,"pp":490,"ical":491,"ave":492,"Ġun":493,"ĠCh":494,"Ġ200":495,"cc":496,"Ġinc":497,"fter":498,"ould":499,"Ġbut":500,"irst":501,"ish":502,"te":503,"ous":504,"ĠV":505,"ff":506,"ions":507,"so":508,"Ġcomp":509,"ide":510,"Ġ20":511,"Ġro":512,"ure":513,"Ġwhe":514,"ub":515,"Ġar":516,"Ġcont":517,"ie":518,"Ġ;":519,"og":520,"ign":521,"Ġfirst":522,"Ġcl":523,"wo":524,"Ġher":525,"ry":526,"ue":527,"Ġits":528,"ass":529,"Ġtheir":530,"orm":531,"ĠâĢĵ":532,"ok":533,"ork":534,"Ġint":535,"Ġres":536,"Ġ:":537,"ater":538,"Ġalso":539,"Ġab":540,"ond":541,"Ġad":542,"ome":543,"out":544,"ran":545,"ĠHe":546,"mer":547,"ire":548,"hed":549,"ru":550,"Ġus":551,"age":552,"du":553,"Ġ4":554,"The":555,"ime":556,"low":557,"Ġper":558,"per":559,"Ġwho":560,"Ġ5":561,"Ġone":562,"Ġhave":563,"Ġsc":564,"pl":565,"ally":566,"own":567,"ile":568,"Ġrec":569,"ted":570,"Ġ18":571,".@":572,"Ġ@.@":573,"Ġtwo":574,"ition":575,"ugh":576,"ĠTh":577,"iz":578,"ree":579,"ence":580,"uring":581,"ts":582,"port":583,"Ġbeen":584,"Ġpart":585,"Ġbec":586,"ice":587,"Ġhas":588,"Ġag":589,"Ġapp":590,",@":591,"Ġ@,@":592,"ough":593,"Ġ201":594,"Ġj":595,"Ġen":596,"Ġdis":597,"lud":598,"ke":599,"Ġover":600,"Ġser":601,"Ġthis":602,"ory":603,"ely":604,"Ġyear":605,"ations":606,"ember":607,"ren":608,"ction":609,"ound":610,"ach":611,"Ġoff":612,"Ġafter":613,"ric":614,"Ġup":615,"land":616,"ĠAl":617,"Ġplay":618,"ace":619,"Ġdes":620,"ark":621,"over":622,"ance":623,"Ġout":624,"Ġthey":625,"Ġman":626,"ade":627,"Ġte":628,"ĠIt":629,"act":630,"Ġother":631,"ib":632,"man":633,"ult":634,"Ġim":635,"ph":636,"ress":637,"Ġinclud":638,"ced":639,"ens":640,"urn":641,"ĠY":642,"wn":643,"Ġwould":644,"ind":645,"Ġtime":646,"one":647,"Ġinto":648,"Ġpre":649,"vel":650,"ward":651,"we":652,"ite":653,"Ġwe":654,"Ġhim":655,"oin":656,"ates":657,"ĠUn":658,"Ġ6":659,"Ġshe":660,"les":661,"Ġev":662,"Ġatt":663,"ilm":664,"ased":665,"Ġne":666,"ited":667,"able":668,"end":669,"ied":670,"ase":671,"amp":672,"Ġcomm":673,"ors":674,"ne":675,"Ġinter":676,"are":677,"rough":678,"oy":679,"ons":680,"ount":681,"ep":682,"form":683,"Ġall":684,"ose":685,"ood":686,"ang":687,"Ġmore":688,"ces":689,"Ġwork":690,"Ġ7":691,"ail":692,"old":693,"aw":694,"ered":695,"ings":696,"ve":697,"ild":698,"Ġnew":699,"Ġsec":700,"Ġbet":701,"inal":702,"Ġfe":703,"Ġfilm":704,"ick":705,"vi":706,"Ġwhen":707,"ents":708,"way":709,"att":710,"ft":711,"iss":712,"aus":713,"fer":714,"gan":715,"Ġ8":716,"reat":717,"rib":718,"Ġcons":719,"ĠAn":720,"round":721,"ake":722,"Ġrem":723,"ved":724,"ĠMar":725,"Ġtr":726,"ĠSe":727,"Ġdec":728,"ason":729,"ĠAr":730,"ans":731,"Ġduring":732,"orth":733,"Ġund":734,"ubl":735,"Ġagain":736,"hip":737,"Ġ9":738,"Ġmost":739,"Ġgame":740,"oth":741,"Ġthem":742,"Ġonly":743,"Ġpr":744,"ath":745,"ween":746,"ix":747,"Ġ199":748,"Ġear":749,"ollow":750,"Ġthan":751,"ob":752,"rop":753,"Ġsup":754,"ss":755,"ational":756,"fore":757,"Ġabout":758,"Ġprodu":759,"ug":760,"Ġcent":761,"tern":762,"Ġret":763,"Ġchar":764,"Ġsong":765,"ĠNew":766,"Ġcan":767,"outh":768,"Ġbetween":769,"Ġlater":770,"Ġrele":771,"Ġunder":772,"ict":773,"Ġkn":774,"Ġthree":775,"ton":776,"ron":777,"Ġcol":778,"Ġact":779,"Ġ00":780,"hn":781,"als":782,"Ġqu":783,"Ġthrough":784,"orld":785,"ook":786,"Ġnum":787,"Ġso":788,"Ġme":789,"Ġacc":790,"Ġrel":791,"Ġwhile":792,"ĠEn":793,"Ġra":794,"Ġend":795,"meric":796,"In":797,"lect":798,"Ġfl":799,"ever":800,"ters":801,"ĠAmeric":802,"ock":803,"ral":804,"Ġpos":805,"ĠLe":806,"Ġsub":807,"ning":808,"Ġass":809,"ular":810,"ating":811,"Ġwhere":812,"Ġver":813,"Ġday":814,"ck":815,"Ġreg":816,"Ġsecond":817,"aid":818,"ener":819,"Ġbu":820,"Ġmade":821,"ames":822,"ision":823,"ived":824,"ĠRe":825,"Ġpe":826,"Ġrecord":827,"Ġdef":828,"ĠCom":829,"bum":830,"Ġfour":831,"Ġgro":832,"Ġfollow":833,"Ġseason":834,"Ġ000":835,"son":836,"Ġep":837,"Ġform":838,"Ġsome":839,"Ġsuch":840,"Ġam":841,"ool":842,"ished":843,"Ġmov":844,"Ġbefore":845,"Ġtra":846,"hes":847,"Ġmus":848,"Ġthere":849,"Ġwrit":850,"ics":851,"io":852,"Ġspec":853,"iel":854,"ike":855,"Ġ10":856,"ĠSp":857,"Ġyears":858,"Ġsy":859,"Ġteam":860,"ode":861,"ual":862,"ident":863,"Ġ/":864,"Ġlar":865,"ĠOn":866,"Ġalbum":867,"Ġind":868,"hen":869,"ily":870,"owever":871,"ĠJo":872,"Ġent":873,"Ġused":874,"Ġcall":875,"ank":876,"Ġsur":877,"ific":878,"ll":879,"Ġac":880,"ury":881,"Ġhigh":882,"Ġpubl":883,"Ġbeing":884,"orn":885,"ĠThis":886,"Ġepis":887,"ĠSh":888,"ained":889,"Ġthen":890,"ten":891,"aj":892,"velop":893,"Ġdo":894,"Ġloc":895,"Ġexp":896,"ife":897,"ris":898,"Ġagainst":899,"Ġ17":900,"Ġinv":901,"Ġbl":902,"Ġ0":903,"Ġpres":904,"Ġnumber":905,"other":906,"Ġshow":907,"Ġcharac":908,"ious":909,"Ġsever":910,"Ġadd":911,"ale":912,"Ġco":913,"Ġset":914,"ince":915,"ject":916,"ars":917,"Ġbecame":918,"Ġrece":919,"ause":920,"ek":921,"Ġperform":922,"ĠBrit":923,"Ġlead":924,"Ġincluding":925,"Ġno":926,"Ġsing":927,"ather":928,"ins":929,"ines":930,"ĠâĢĶ":931,"Ġfound":932,"ĠAt":933,"air":934,"rans":935,"Ġwell":936,"Ġmon":937,"Ġrep":938,"ĠUnited":939,"Ġpol":940,"ĠAs":941,"Ġback":942,"Ġboth":943,"Ġcap":944,"ier":945,"Ġseries":946,"Ġ15":947,"Ġ12":948,"Ġ198":949,"ober":950,"ĠSc":951,"ram":952,"ik":953,"Ġship":954,"ower":955,"ement":956,"its":957,"ert":958,"ired":959,"ures":960,"ley":961,"ivers":962,"pen":963,"Ġmain":964,"Ġmin":965,"Ġ194":966,"iet":967,"der":968,"overn":969,"Ġdid":970,"ven":971,"olog":972,"Ġgo":973,"led":974,"Ġcre":975,"elf":976,"Ġimp":977,"Ġdevelop":978,"az":979,"Ġmet":980,"ĠShe":981,"ities":982,"ane":983,"iver":984,"ĠCon":985,"Ġlong":986,"any":987,"ised":988,"erm":989,"ting":990,"ĠEng":991,"uch":992,"ared":993,"Ġem":994,"ird":995,"Ġmill":996,"ful":997,"Ġmat":998,"Ġair":999,"Ġepisode":1000,"tend":1001,"irect":1002,"Ġsaid":1003,"Ġstud":1004,"Ġmany":1005,"ute":1006,"Ġbro":1007,"ative":1008,"ash":1009,"Ġcar":1010,"Ġdep":1011,"Ġcould":1012,"Ġorig":1013,"Ġ16":1014,"Ġwar":1015,"Ġcontin":1016,"Ġseveral":1017,"ann":1018,"ah":1019,"though":1020,"ield":1021,"Ġdif":1022,"ĠJohn":1023,"Ġinst":1024,"Ġpop":1025,"ouse":1026,"ĠAmerican":1027,"ise":1028,"emb":1029,"Ġknown":1030,"ĠInd":1031,"ty":1032,"ĠCl":1033,"Ġ197":1034,"ĠWh":1035,"ually":1036,"Ġconc":1037,"til":1038,"ĠAust":1039,"Ġ196":1040,"Ġ11":1041,"iam":1042,"view":1043,"erson":1044,"Ġob":1045,"ued":1046,"Ġsm":1047,"erman":1048,"Ġreturn":1049,"Ġbegan":1050,"Ġany":1051,"ĠWar":1052,"Ġcomple":1053,"Ġdesign":1054,"Ġdesc":1055,"Ġsign":1056,"ople":1057,"ross":1058,"chool":1059,"my":1060,"oot":1061,"ism":1062,"Ġest":1063,"ccess":1064,"ĠZ":1065,"Ġtrans":1066,"ern":1067,"Ġprov":1068,"aking":1069,"Ġfeat":1070,"ided":1071,"Ġinf":1072,"anc":1073,"Ġrun":1074,"Ġearly":1075,"ĠDe":1076,"Ġart":1077,"ized":1078,"Ġdist":1079,"Ġmusic":1080,"Ġnear":1081,"Ġown":1082,"Ġreleased":1083,"Ġuntil":1084,"Ġcalled":1085,"Ġeff":1086,"ĠAfter":1087,"imes":1088,"ĠBl":1089,"ists":1090,"rid":1091,"une":1092,"Ġresp":1093,"Ġbel":1094,"Ġpass":1095,"ured":1096,"stem":1097,"Ġfin":1098,"ĠCol":1099,"ially":1100,"ĠUS":1101,"ĠBe":1102,"Ġph":1103,"Ġdown":1104,"ution":1105,"ĠMay":1106,"Ġdisc":1107,"ments":1108,"Ġcrit":1109,"xt":1110,"osed":1111,"Ġdirect":1112,"Ġgener":1113,"ys":1114,"Ġalong":1115,"Ġins":1116,"ium":1117,"Ġmillion":1118,"enn":1119,"ger":1120,"ull":1121,"ax":1122,"Ġoffic":1123,"Ġgroup":1124,"vent":1125,"ĠBritish":1126,"Ġfam":1127,"Ġ13":1128,"ĠGerman":1129,"Ġthese":1130,"ajor":1131,"eb":1132,"Ġmod":1133,"Ġmay":1134,"Ġopen":1135,"Ġ$":1136,"cept":1137,"ange":1138,"Ġmil":1139,"Ġpoin":1140,"uc":1141,"gg":1142,"Ġland":1143,"Ġhist":1144,"Ġsim":1145,"Ġgovern":1146,"ĠAug":1147,"Ã©":1148,"ĠSept":1149,"Ġsuccess":1150,"erv":1151,"ĠSeptember":1152,"ets":1153,"ĠAugust":1154,"Ġgu":1155,"Ġoper":1156,"ĠStates":1157,"ible":1158,"ink":1159,"Ġattack":1160,"Ġcount":1161,"ĠAd":1162,"Ġuse":1163,"Ġsame":1164,"wards":1165,"Ġdescrib":1166,"Ġpeople":1167,"ĠWorld":1168,"ĠAp":1169,"aced":1170,"yp":1171,"Ġcharacter":1172,"amed":1173,"Ġbecause":1174,"els":1175,"Ġvi":1176,"Ġ14":1177,"Ġlike":1178,"Ġserv":1179,"ged":1180,"Ġaround":1181,"ĠJu":1182,"Ġstart":1183,"Ġthough":1184,"Ġed":1185,"ner":1186,"Ġkm":1187,"Ġ195":1188,"Ġwin":1189,"ĠIs":1190,"Ġconst":1191,"ues":1192,"ring":1193,"Ġtook":1194,"Ġocc":1195,"ruct":1196,"Ġbatt":1197,"aving":1198,"ĠAustral":1199,"ĠFran":1200,"ove":1201,"ĠOct":1202,"Ġsupport":1203,"ĠQ":1204,"Ġnorth":1205,"Ġfollowing":1206,"Ġsix":1207,"Ġele":1208,"ĠNov":1209,"Ġ193":1210,"ĠPl":1211,"Ġsystem":1212,"Ġappear":1213,"uss":1214,"ĠAll":1215,"ene":1216,"Ġfinal":1217,"Ġreceived":1218,"Ġclass":1219,"ined":1220,"ives":1221,"Ġhead":1222,"Ġprom":1223,"ĠOctober":1224,"Ġconsid":1225,"rad":1226,"ants":1227,"ĠCar":1228,"ling":1229,"Ġann":1230,"ility":1231,"ically":1232,"Ġstate":1233,"Ġever":1234,"Ġ191":1235,"ĠDec":1236,"Ġbuild":1237,"ĠPro":1238,"ĠHowever":1239,"ĠFor":1240,"Ġeach":1241,"ret":1242,"anu":1243,"Ġext":1244,"Ġfive":1245,"rist":1246,"Ġaut":1247,"Ġcentury":1248,"ina":1249,"Ġbo":1250,"Ġvar":1251,"Ġarea":1252,"Ġwill":1253,"ately":1254,"ĠYork":1255,"Ġsmall":1256,"oss":1257,"get":1258,"Ġpartic":1259,"Ġlife":1260,"iving":1261,"Ġreport":1262,"ril":1263,"Ġ]":1264,"ĠMe":1265,"tle":1266,"ĠThey":1267,"ored":1268,"ians":1269,"ĠNorth":1270,"Ġcity":1271,"ĠJune":1272,"ording":1273,"Ġ[":1274,"Ġcontro":1275,"gin":1276,"ped":1277,"Ġmar":1278,"Ġmajor":1279,"Ġpublic":1280,"Ġweek":1281,"Ġ%":1282,"ission":1283,"ĠJuly":1284,"Ġconf":1285,"Ġband":1286,"ection":1287,"Ġref":1288,"med":1289,"urch":1290,"inc":1291,"ĠNovember":1292,"ĠKing":1293,"Ġrest":1294,"Ġworld":1295,"Ġmed":1296,"Ġsince":1297,"esp":1298,"Ġsingle":1299,"raft":1300,"raph":1301,"por":1302,"ĠComm":1303,"ble":1304,"ĠApril":1305,"ey":1306,"ains":1307,"ried":1308,"Ġdet":1309,"omet":1310,"lish":1311,"Ġjust":1312,"ĠHar":1313,"ĠMarch":1314,"ected":1315,"Ġlast":1316,"ural":1317,"ional":1318,"hest":1319,"aim":1320,"Ġturn":1321,"ively":1322,"ĠPh":1323,"ilt":1324,"Ġhel":1325,"ient":1326,"cl":1327,"Ġallow":1328,"Ġpo":1329,"ĠWill":1330,"Ġ30":1331,"vious":1332,"ĠCan":1333,"Ġleft":1334,"Ġlarge":1335,"Ġline":1336,"ats":1337,"ĠMc":1338,"Ġdiffer":1339,"ales":1340,"Ġcare":1341,"Ġsouth":1342,"ĠEd":1343,"Ġadv":1344,"ified":1345,"Ġdr":1346,"Ġstr":1347,"ĠSouth":1348,"Ġbook":1349,"Ġvers":1350,"empt":1351,"Ġschool":1352,"Ġsl":1353,"..":1354,"ĠBro":1355,"Ġthird":1356,"ĠDecember":1357,"ague":1358,"avy":1359,"Ġincre":1360,"Ġ25":1361,"Ġmonth":1362,"Ġdue":1363,"Ġappro":1364,"Ġplayed":1365,"ĠGe":1366,"Ġevent":1367,"Ġmuch":1368,"rote":1369,"Ġanother":1370,"Ġif":1371,"Ġincluded":1372,"anuary":1373,"row":1374,"Ġwhat":1375,"ĠJanuary":1376,"Ġ192":1377,"Ġplace":1378,"Ġbased":1379,"Ġshort":1380,"by":1381,"ony":1382,"ĠII":1383,"Ġgovernment":1384,"Ġexpl":1385,"Ġperson":1386,"ball":1387,"apan":1388,"Ġwrote":1389,"Ġtrack":1390,"Ġcamp":1391,"Ġtit":1392,"Ġold":1393,"alf":1394,"Ġbre":1395,"Ġport":1396,"Ġname":1397,"Ġdeath":1398,"ently":1399,"Ġelect":1400,"ĠPr":1401,"ple":1402,"ĠEu":1403,"rent":1404,"Ġeng":1405,"ience":1406,"Ġwon":1407,"ĠJapan":1408,"Ġchild":1409,"Ġprot":1410,"Ġlit":1411,"Ġkill":1412,"oad":1413,"Ġprog":1414,"Ġ...":1415,"ideo":1416,"Ġstory":1417,"ages":1418,"Ġpower":1419,"ĠBy":1420,"Ġreview":1421,"ody":1422,"ital":1423,"Ġvis":1424,"ott":1425,"Ġhome":1426,"Ġled":1427,"ps":1428,"eng":1429,"Ġdescribed":1430,"Ġrequ":1431,"ont":1432,"Ġprevious":1433,"oman":1434,"Ġgun":1435,"ney":1436,"Ġfamily":1437,"ĠTe":1438,"rand":1439,"ĠOr":1440,"yl":1441,"Ġway":1442,"Ġnamed":1443,"Ġright":1444,"Ġnow":1445,"tain":1446,"Ġdem":1447,"urther":1448,"iod":1449,"iven":1450,"Ġmen":1451,"embers":1452,"ilar":1453,"Ġeven":1454,"Ġmake":1455,"Ġorgan":1456,"reen":1457,"ister":1458,"cy":1459,"iversity":1460,"Ġattempt":1461,"omin":1462,"Ġcour":1463,"itions":1464,"Ġbest":1465,"sh":1466,"ĠMus":1467,"Ġrepl":1468,"Ġ100":1469,"ivision":1470,"Ġopp":1471,"ĠÂ":1472,"Ġleg":1473,"ĠGu":1474,"ior":1475,"rench":1476,"Ġgames":1477,"ached":1478,"Ġcommand":1479,"Ġterm":1480,"Ġhand":1481,"ival":1482,"mp":1483,"Ġposs":1484,"Ġbelie":1485,"Ġdam":1486,"ox":1487,"Ġvery":1488,"ean":1489,"Ġthose":1490,"ebru":1491,"Ġpar":1492,"lu":1493,"ebruary":1494,"Ġiss":1495,"ĠFebruary":1496,"Ġstill":1497,"ĠEurop":1498,"Ġnext":1499,"Ġtop":1500,"Ġspecies":1501,"Ġeffect":1502,"riend":1503,"ched":1504,"Ġview":1505,"oci":1506,"Ġoriginal":1507,"Ġspe":1508,"ences":1509,"ature":1510,"aken":1511,"ĠNational":1512,"Ġwater":1513,"ness":1514,"Ġjoin":1515,"Ġaddition":1516,"ĠChrist":1517,"ĠAnd":1518,"ĠFl":1519,"Ġlist":1520,"au":1521,"hor":1522,"Ġperiod":1523,"Ġwithin":1524,"Ġmembers":1525,"alk":1526,"Ġmark":1527,"Ġbuilt":1528,"eter":1529,"Ġheld":1530,"Ġdeb":1531,"ĠHis":1532,"Ġexper":1533,"af":1534,"Ġrelease":1535,"Ġalthough":1536,"Ġlate":1537,"Ġformer":1538,"Ġmatch":1539,"rew":1540,"ĠFrench":1541,"ridge":1542,"Ġ2010":1543,"Ġgreat":1544,"augh":1545,"ĠWe":1546,"Ġsold":1547,"Ġcur":1548,"Ġdest":1549,"uted":1550,"Ġvideo":1551,"tended":1552,"ards":1553,"ĠBar":1554,"Ġcaus":1555,"Ġ21":1556,"line":1557,"Ġstorm":1558,"ĠPar":1559,"Ġcover":1560,"ves":1561,"ech":1562,"Ġrole":1563,"Ġinit":1564,"Ġtri":1565,"ropical":1566,"self":1567,"Ġcame":1568,"hel":1569,"Ġestab":1570,"Ġdays":1571,"ances":1572,"Ġresult":1573,"Ġmid":1574,"Ġpresent":1575,"na":1576,"ĠWest":1577,"lev":1578,"ulation":1579,"aged":1580,"oon":1581,"ption":1582,"ĠX":1583,"Ġpolit":1584,"Ġstand":1585,"Ġreal":1586,"ham":1587,"Ġhowever":1588,"itary":1589,"aster":1590,"ĠAm":1591,"ĠWhen":1592,"Ġprop":1593,"let":1594,"Ġ2008":1595,"omb":1596,"ense":1597,"atic":1598,"ides":1599,"Ġfew":1600,"Ġwind":1601,"Ġtown":1602,"ead":1603,"ĠWilliam":1604,"Ġ2009":1605,"Ġside":1606,"Ġ24":1607,"Ġyou":1608,"ograph":1609,"Ġtw":1610,"Ġsk":1611,"ĠMin":1612,"Ġcontinued":1613,"Ġoften":1614,"Ġpost":1615,"Ġequ":1616,"ays":1617,"Ġlocal":1618,"elt":1619,"ĠMan":1620,"ator":1621,"Ġamong":1622,"ruction":1623,"Ġsimilar":1624,"Ġ2011":1625,"ract":1626,"Ġhum":1627,"Ġclaim":1628,"Ġav":1629,"estern":1630,"omen":1631,"ches":1632,"ung":1633,"ĠAir":1634,"ese":1635,"Ġ&":1636,"reet":1637,"side":1638,"akes":1639,"ology":1640,"read":1641,"ĠGeor":1642,"ops":1643,"Ġdifferent":1644,"ĠEngland":1645,"Ġdel":1646,"ler":1647,"Ġmy":1648,"Ġbeh":1649,"par":1650,"ĠHer":1651,"arm":1652,"Ġfurther":1653,"Ġtyp":1654,"Ġsent":1655,"tal":1656,"Ġ22":1657,"esc":1658,"Ġlevel":1659,"ested":1660,"ots":1661,"Ġfre":1662,"urs":1663,"Ġtake":1664,"ery":1665,"Ġlaw":1666,"Ġconsidered":1667,"ĠDuring":1668,"ĠMich":1669,"gy":1670,"Ġcareer":1671,"rodu":1672,"Ġ2007":1673,"ĠChar":1674,"Ġproduction":1675,"ĠEar":1676,"Ġhalf":1677,"me":1678,"ices":1679,"On":1680,"Ġhaving":1681,"Ġant":1682,"ampions":1683,"bo":1684,"ĠNo":1685,"ĠCity":1686,"ĠPark":1687,"Ġmag":1688,"Ġroad":1689,"Ġeast":1690,"Ġmoved":1691,"sp":1692,"Ġdra":1693,"ering":1694,"Ġwest":1695,"rig":1696,"ĠEnglish":1697,"Ġtro":1698,"Ġevery":1699,"Ġwithout":1700,"Ġcor":1701,"ĠEl":1702,"Ġcr":1703,"ĠThere":1704,"Ġappe":1705,"Ġplan":1706,"ining":1707,"ĠRec":1708,"ĠDav":1709,"Ġposition":1710,"Ġplayer":1711,"Ġarr":1712,"Ġbecome":1713,"ront":1714,"Ġhistory":1715,"vers":1716,"Ġversion":1717,"ĠCent":1718,"ĠCo":1719,"ones":1720,"ford":1721,"Ġ2012":1722,"ondon":1723,"Ġcast":1724,"Ġel":1725,"Ġinflu":1726,"ĠCount":1727,"Ġarm":1728,"ize":1729,"ald":1730,"Ġhouse":1731,"Ġ23":1732,"yle":1733,"Ġsound":1734,"irc":1735,"Ġcommun":1736,"Ġfore":1737,"resent":1738,"ĠAng":1739,"app":1740,"ĠLondon":1741,"aul":1742,"roy":1743,"Ġgr":1744,"Ġinvol":1745,"atter":1746,"Ġsugg":1747,"Ġclub":1748,"Ġstrong":1749,"ĠBatt":1750,"Ġke":1751,"ai":1752,"Ġwritten":1753,"Ġ190":1754,"aining":1755,"Ġbas":1756,"Ġstat":1757,"Ġless":1758,"utes":1759,"oung":1760,"Ġannoun":1761,"rest":1762,"Ġfoot":1763,"ĠRiver":1764,"iqu":1765,"Ġorder":1766,"Ġrefer":1767,"iety":1768,"iment":1769,"ges":1770,"Ġprof":1771,"craft":1772,"sequ":1773,"ĠCal":1774,"yn":1775,"Ġaff":1776,"Ġpoint":1777,"Ġtem":1778,"Ġgiven":1779,"Ġrad":1780,"Ġlow":1781,"Ġhig":1782,"ĠCanad":1783,"ille":1784,"Ġtrad":1785,"Ġwant":1786,"Ġgave":1787,"isc":1788,"ĠUniversity":1789,"uck":1790,"Ġpat":1791,"Ġnever":1792,"Ġdefe":1793,"Ġimport":1794,"aff":1795,"Ġchang":1796,"Ġreturned":1797,"ories":1798,"Ġsoc":1799,"ration":1800,"ae":1801,"Ġvict":1802,"Ġtotal":1803,"ĠOne":1804,"Ġfact":1805,"Ġgood":1806,"ention":1807,"Ġcontrol":1808,"Ġfire":1809,"Ġcompany":1810,"ailed":1811,"ison":1812,"Ġwent":1813,"Ġcomb":1814,"Ġcountry":1815,"cess":1816,"ĠGener":1817,"ours":1818,"Ġfriend":1819,"Ġcapt":1820,"rick":1821,"Ġpublished":1822,"aun":1823,"ĠPol":1824,"ĠHigh":1825,"Ġproduced":1826,"levision":1827,"aying":1828,"con":1829,"Ġfind":1830,"Ġreported":1831,"Ġorigin":1832,"aign":1833,"Ġlost":1834,"Ġstated":1835,"Ġcommon":1836,"Ġprogram":1837,"Ġ2006":1838,"Ġlight":1839,"ington":1840,"ape":1841,"Ġparticular":1842,"Ġord":1843,"echn":1844,"Ġadm":1845,"Ġinclude":1846,"ests":1847,"ĠTr":1848,"ccording":1849,"Ġlarg":1850,"bs":1851,"ably":1852,"Ġer":1853,"urric":1854,"Ġcompet":1855,"used":1856,"Ġrecorded":1857,"ief":1858,"Ġforces":1859,"Ġbuilding":1860,"Ġpress":1861,"ush":1862,"Ġneed":1863,"Ġproject":1864,"Ġnort":1865,"ĠEx":1866,"ument":1867,"Ġships":1868,"ĠSm":1869,"Ġshould":1870,"Ġ27":1871,"Ġeight":1872,"Ġusing":1873,"Ġperformance":1874,"Ġ50":1875,"Ġ28":1876,"iness":1877,"ploy":1878,"Ġservice":1879,"Ġpopular":1880,"Ġide":1881,"Ġtimes":1882,"osp":1883,"Ġmaking":1884,"Ġten":1885,"Ġaircraft":1886,"Ġmilitary":1887,"Ġhimself":1888,"oyal":1889,"atch":1890,"Ġauthor":1891,"Ġfun":1892,"Ġfather":1893,"Ġbattle":1894,"Ġanim":1895,"Ġ2013":1896,"ned":1897,"lear":1898,"ampionship":1899,"ĠSw":1900,"Ġsit":1901,"Ġlim":1902,"Ġsongs":1903,"Ġsomet":1904,"ĠAustralia":1905,"Ġread":1906,"outher":1907,"ef":1908,"Ġbus":1909,"ĠAf":1910,"ensive":1911,"Ġcritic":1912,"ords":1913,"ither":1914,"ĠSec":1915,"Ġdevelopment":1916,"oll":1917,"Ġsw":1918,"ĠAss":1919,"Ġhow":1920,"eth":1921,"Ġgl":1922,"alth":1923,"Ġ40":1924,"quad":1925,"eder":1926,"itive":1927,"ĠAb":1928,"ases":1929,"Ġsol":1930,"ĠNe":1931,"Ġ26":1932,"outhern":1933,"ĠThese":1934,"Ġcross":1935,"ĠJack":1936,"ĠCor":1937,"cer":1938,"ks":1939,"amb":1940,"Ġground":1941,"Ġrepresent":1942,"Ġ189":1943,"Ġdestroy":1944,"acy":1945,"Ġstar":1946,"Ġft":1947,"ĠGeneral":1948,"astern":1949,"Ġremained":1950,"ĠState":1951,"Ġste":1952,"ĠArmy":1953,"Ġcharacters":1954,"Ġnational":1955,"ries":1956,"Ġget":1957,"work":1958,"Ġsuff":1959,"ĠSy":1960,"Ġmonths":1961,"Ġgen":1962,"Ġdied":1963,"Ġter":1964,"aur":1965,"ublic":1966,"Ġdeveloped":1967,"Ġtitle":1968,"dom":1969,"Ġsum":1970,"Ġchart":1971,"Ġcampaign":1972,"Ġforce":1973,"fic":1974,"ream":1975,"urricane":1976,"ĠPres":1977,"Ġchildren":1978,"ĠBo":1979,"lands":1980,"Ġintrodu":1981,"Ġpra":1982,"Ġtour":1983,"ency":1984,"Ġpromot":1985,"ĠLeague":1986,"itted":1987,"ĠJames":1988,"isted":1989,"ael":1990,"Ġsignific":1991,"ĠComp":1992,"Ġacross":1993,"Ġson":1994,"Ġred":1995,"hern":1996,"ression":1997,"Ġaway":1998,"ĠGl":1999,"Ġobs":2000,"Ġrelations":2001,"ĠAlthough":2002,"Ġofficial":2003,"Ġhistor":2004,"Ġfield":2005,"ole":2006,"Ġfav":2007,"ĠDivision":2008,"Ġfelt":2009,"lege":2010,"ĠAmerica":2011,"Ġnoted":2012,"ĠWith":2013,"Ġnight":2014,"Ġfac":2015,"alt":2016,"Ġannounced":2017,"most":2018,"Ġreached":2019,"ĠSte":2020,"Ġintern":2021,"Ġche":2022,"ĠCounty":2023,"Ġcreated":2024,"Ġareas":2025,"com":2026,"Ġcoun":2027,"Ġtelevision":2028,"ĠJapanese":2029,"ĠRuss":2030,"Ġstation":2031,"ĠRoad":2032,"ressed":2033,"Ġsuccessful":2034,"Ġrock":2035,"Ġ2005":2036,"imately":2037,"ĠRep":2038,"Ġval":2039,"ising":2040,"Ġbar":2041,"Ġvarious":2042,"ĠâĢĻ":2043,"Ġpolitical":2044,"ĠStreet":2045,"Ġfollowed":2046,"Ġseen":2047,"Ġaver":2048,"Ġ29":2049,"field":2050,"Ġtoo":2051,"iber":2052,"ĠSup":2053,"iting":2054,"ization":2055,"ĠMor":2056,"Ġrank":2057,"ett":2058,"Ġperformed":2059,"cast":2060,"Ġserved":2061,"ĠSim":2062,"Ġcult":2063,"ope":2064,"reg":2065,"Ġplayers":2066,"Ġprim":2067,"Ġcond":2068,"Ġrev":2069,"Ġdecl":2070,"ĠMon":2071,"ination":2072,"ĠMad":2073,"Ġfull":2074,"Ġblack":2075,"ality":2076,"Ġbegin":2077,"elling":2078,"Ġ2014":2079,"Ġfle":2080,"Ġconv":2081,"Ġput":2082,"duct":2083,"ĠReg":2084,"Ġcirc":2085,"abor":2086,"ĠEast":2087,"Ġearl":2088,"olution":2089,"ĠGr":2090,"Ġcost":2091,"ĠWhile":2092,"idence":2093,"Ġsee":2094,"Ġprocess":2095,"Ġdiv":2096,"Ġnon":2097,"Ġstyle":2098,"ying":2099,"Ġlook":2100,"Ġkilled":2101,"Ġseven":2102,"Ġvol":2103,"Ġaud":2104,"Ġcy":2105,"rict":2106,"Ġhelp":2107,"Ġlet":2108,"play":2109,"Ġthroughout":2110,"lished":2111,"bor":2112,"Ġtaken":2113,"Ġable":2114,"Ġtropical":2115,"ana":2116,"Ġfight":2117,"ĠSer":2118,"Ġagre":2119,"Ġdiscover":2120,"ecut":2121,"Ġlittle":2122,"Ġwid":2123,"ertain":2124,"Ġsignificant":2125,"Ġbecom":2126,"urg":2127,"Ġage":2128,"Ġfem":2129,"Ġhit":2130,"Ġident":2131,"Ġmeet":2132,"ĠPhil":2133,"ways":2134,"Ġtechn":2135,"ĠAccording":2136,"Ġspecial":2137,"ĠGeorge":2138,"irl":2139,"ĠHen":2140,"ĠRober":2141,"Ġstruct":2142,"Ġcop":2143,"oice":2144,"Ġwriting":2145,"ĠBill":2146,"Ġfront":2147,"Ġthought":2148,"hing":2149,"Ġestablished":2150,"Ġbroad":2151,"ĠAustralian":2152,"enced":2153,"Ġmm":2154,"Ġappeared":2155,"Ġcoll":2156,"aval":2157,"Ġdoes":2158,"Ġentire":2159,"cil":2160,"epend":2161,"ĠEm":2162,"Ġ!":2163,"Ġmiles":2164,"Ġcoast":2165,"Ġyoung":2166,"Ġpoints":2167,"Ġbody":2168,"less":2169,"ius":2170,"Ġaward":2171,"odes":2172,"Ġroute":2173,"Ġimpro":2174,"ought":2175,"Ġmember":2176,"ground":2177,"ript":2178,"Ġactiv":2179,"Ġrange":2180,"Ġwomen":2181,"ask":2182,"ivil":2183,"here":2184,"iers":2185,"Ġstarted":2186,"Ġdecided":2187,"Ġcaused":2188,"ms":2189,"ster":2190,"ĠPart":2191,"lected":2192,"Ġfeatures":2193,"day":2194,"ĠAct":2195,"ĠPer":2196,"Ġgeneral":2197,"Ġpain":2198,"ĠSch":2199,"ĠAfric":2200,"ators":2201,"Ġeventually":2202,"iron":2203,"iec":2204,"int":2205,"men":2206,"ĠThom":2207,"umb":2208,"ĠMed":2209,"den":2210,"conom":2211,"ĠYou":2212,"oph":2213,"Ġrace":2214,"ogn":2215,"Ġarch":2216,"uk":2217,"Ġvot":2218,"itar":2219,"Ġfeet":2220,"Ġgrow":2221,"Ġmanag":2222,"ĠRich":2223,"rison":2224,"pped":2225,"Ġadded":2226,"Ġtoget":2227,"Ġtogether":2228,"bert":2229,"ĠDavid":2230,"Ġtre":2231,"Ġcut":2232,"Ġhold":2233,"ĠRoyal":2234,"Ġwhite":2235,"ivid":2236,"reek":2237,"Ġ188":2238,"Ġonce":2239,"ĠHouse":2240,"Ġformed":2241,"Ġlocated":2242,"ample":2243,"Ġnov":2244,"ament":2245,"Ġarg":2246,"ĠQu":2247,"ĠPe":2248,"Ġstri":2249,"off":2250,"Ġconn":2251,"urb":2252,"Ġenc":2253,"Ġmodern":2254,"Ġinstead":2255,"dle":2256,"head":2257,"rought":2258,"aces":2259,"orts":2260,"Ġround":2261,"Ġesc":2262,"ara":2263,"Ġball":2264,"Ġ31":2265,"emy":2266,"Ġmix":2267,"Ġimportant":2268,"Ġpri":2269,"Ġcrew":2270,"cing":2271,"Ġsaw":2272,"Ġaction":2273,"Ġcompleted":2274,"Ġredu":2275,"Ġplaying":2276,"ects":2277,"rated":2278,"ids":2279,"oney":2280,"cent":2281,"ells":2282,"ĠIndian":2283,"ĠBlack":2284,"ĠItal":2285,"Ġpopulation":2286,"ata":2287,"Ġbase":2288,"Ġinsp":2289,"ĠIntern":2290,"Ġmater":2291,"Ġ2004":2292,"Ġmot":2293,"ĠHist":2294,"Ġsurv":2295,"Ġstage":2296,"Ġvoc":2297,"lin":2298,"Ġask":2299,"Ġoccur":2300,"ray":2301,"Ġrather":2302,"Ġopened":2303,"sc":2304,"Ġbehind":2305,"Ġothers":2306,"Ġfall":2307,"Ġguns":2308,"Ġren":2309,"asing":2310,"Ġ186":2311,"ceed":2312,"wood":2313,"Ġbrother":2314,"ements":2315,"Ġcomment":2316,"igned":2317,"Ġlik":2318,"stit":2319,"Ġsite":2320,"Ġfif":2321,"Ġlive":2322,"Ġworks":2323,"Ġloss":2324,"nder":2325,"Ġbomb":2326,"Ġworked":2327,"Ġheavy":2328,"ĠTo":2329,"ficult":2330,"Ġ2015":2331,"Ġmiss":2332,"Ġpred":2333,"Ã¡":2334,"Ġsubsequ":2335,"ĠFrance":2336,"medi":2337,"Ġlack":2338,"rap":2339,"Ġparty":2340,"lection":2341,"Ġdifficult":2342,"Ġproble":2343,"Ġclose":2344,"Ġconstruction":2345,"Ġknow":2346,"ĠSchool":2347,"Ġhost":2348,"Ġweeks":2349,"ĠMy":2350,"Ġrelationship":2351,"arch":2352,"istic":2353,"Ġoriginally":2354,"Ġsepar":2355,"Ġassoci":2356,"Ġupon":2357,"Ġpract":2358,"Ġreb":2359,"Ġleading":2360,"lic":2361,"Ġappoin":2362,"Ġaccom":2363,"Ġvill":2364,"Ġalmost":2365,"Ġmer":2366,"co":2367,"Ġinj":2368,"Ġpeak":2369,"ĠSan":2370,"Ġdamage":2371,"ĠWash":2372,"ĠMichael":2373,"ĠNor":2374,"unk":2375,"Ġborn":2376,"Ġscored":2377,"ĠEurope":2378,"osition":2379,"Ġfourth":2380,"Ġinform":2381,"Ġmor":2382,"Ġreve":2383,"ica":2384,"Ġcase":2385,"Ġprovided":2386,"ming":2387,"Ġmi":2388,"aps":2389,"Ġclos":2390,"Ġengine":2391,"Ġgoal":2392,"board":2393,"Ġinvest":2394,"Ġcreat":2395,"Ġaccept":2396,"ĠBattle":2397,"Ġ2000":2398,"to":2399,"Ġscene":2400,"ellow":2401,"ĠPort":2402,"Ġhuman":2403,"ino":2404,"ule":2405,"angu":2406,"Ġbrought":2407,"ological":2408,"Ġ500":2409,"Ġfree":2410,"Ġindivid":2411,"Ġfeatured":2412,"Ġking":2413,"ula":2414,"Ġ187":2415,"Ġmother":2416,"Ġleast":2417,"ama":2418,"Ġworking":2419,"ĠBest":2420,"Ġlaun":2421,"Ġresul":2422,"Ġallowed":2423,"ĠStar":2424,"Ġtowards":2425,"Ġaverage":2426,"Ġmult":2427,"Ġwanted":2428,"aut":2429,"Ġregion":2430,"Ġindust":2431,"Ġbusiness":2432,"aves":2433,"ĠMusic":2434,"Ġtradition":2435,"ĠRed":2436,"After":2437,"Ġtroops":2438,"iding":2439,"ĠAle":2440,"ĠHenry":2441,"azine":2442,"ee":2443,"Ġplaced":2444,"Ġve":2445,"ĠVir":2446,"Ġquick":2447,"Ġce":2448,"ving":2449,"Ġeither":2450,"Ġrespect":2451,"Ġcritics":2452,"Ġoffice":2453,"Ġhon":2454,"ky":2455,"ĠRou":2456,"Ġavail":2457,"ĠPresident":2458,"antic":2459,"Ġruns":2460,"Ġreach":2461,"Ġprofess":2462,"Ġexample":2463,"Ġmaterial":2464,"Ġeconom":2465,"Ġrecogn":2466,"Ġfar":2467,"go":2468,"ĠQue":2469,"ĠWashington":2470,"ĠHol":2471,"ened":2472,"Ġwife":2473,"earch":2474,"Ġneg":2475,"chie":2476,"Ġarmy":2477,"Ġestim":2478,"ential":2479,"Ġz":2480,"Ġfoc":2481,"right":2482,"espite":2483,"ĠMil":2484,"Ġsex":2485,"ĠGro":2486,"ĠCap":2487,"Ġinterest":2488,"ĠOther":2489,"ength":2490,"Ġsour":2491,"Ġmass":2492,"Ġrail":2493,"Ġjoined":2494,"quadron":2495,"Ġgenerally":2496,"Ġ2003":2497,"ĠCour":2498,"Ġdou":2499,"ĠPaul":2500,"ills":2501,"ĠÃ":2502,"ĠBel":2503,"Ġproper":2504,"enes":2505,"ĠAg":2506,"Ġcurrent":2507,"Ġdev":2508,"ourn":2509,"ĠCro":2510,"uff":2511,"Ġevents":2512,"of":2513,"ĠCup":2514,"Ġbelieved":2515,"itch":2516,"Ġparticip":2517,"ollowing":2518,"rey":2519,"ĠRobert":2520,"ĠKe":2521,"ville":2522,"Ġfig":2523,"oor":2524,"Ġ35":2525,"ĠAngel":2526,"ĠHall":2527,"Ġreplaced":2528,"Ġvictory":2529,"Ġrul":2530,"artment":2531,"Ġdesigned":2532,"Ġgrad":2533,"Ġmph":2534,"Ġisland":2535,"ĠHam":2536,"iction":2537,"ĠGame":2538,"Ġsoon":2539,"Ġnomin":2540,"itte":2541,"xic":2542,"Ġfund":2543,"Ġemploy":2544,"erous":2545,"Ġhours":2546,"ĠGreat":2547,"uel":2548,"Ġpresident":2549,"Ġinvolved":2550,"Ġroom":2551,"ification":2552,"itor":2553,"arn":2554,"aled":2555,"val":2556,"Ġsurf":2557,"Ġfinished":2558,"inist":2559,"merc":2560,"Ġstru":2561,"iff":2562,"asion":2563,"ĠEuropean":2564,"ze":2565,"rac":2566,"ĠChampionship":2567,"west":2568,"inf":2569,"aren":2570,"aper":2571,"Ġbreak":2572,"ĠLou":2573,"inn":2574,"Ġcourt":2575,"ĠMary":2576,"Ġhor":2577,"rain":2578,"Ġsaying":2579,"ĠFirst":2580,"emor":2581,"Ġshot":2582,"Ġopening":2583,"Ġthreat":2584,"Ġscore":2585,"Ġregular":2586,"BC":2587,"ĠRoman":2588,"Ġlength":2589,"Ġdesp":2590,"Ġdirector":2591,"leg":2592,"ades":2593,"ĠLa":2594,"Ġindic":2595,"Ġconduct":2596,"Ġlargest":2597,"Ġhighway":2598,"cher":2599,"Ġcontrib":2600,"oul":2601,"Ġtravel":2602,"Ġhom":2603,"Ġpossible":2604,"Ġsouthern":2605,"Ġdro":2606,"ishing":2607,"Ġminutes":2608,"ecutive":2609,"now":2610,"ki":2611,"ĠMal":2612,"Ġill":2613,"Ġremov":2614,"Ġhighest":2615,"Ġhy":2616,"Ġtest":2617,"icle":2618,"antry":2619,"Ġearlier":2620,"Ġinitially":2621,"ĠMart":2622,"Ġly":2623,"ĠPlay":2624,"ago":2625,"Ġavailable":2626,"Ġpercent":2627,"Ġparticularly":2628,"anned":2629,"ander":2630,"Ġsequ":2631,"Ġhard":2632,"ipp":2633,"Ġtraining":2634,"Ġ2001":2635,"ĠAtl":2636,"ude":2637,"Ġforced":2638,"ply":2639,"Ġexist":2640,"Ġmust":2641,"ĠRepublic":2642,"hib":2643,"ĠRoute":2644,"ĠVal":2645,"rian":2646,"ĠScott":2647,"asy":2648,"ography":2649,"ĠÂ°":2650,"Ġpark":2651,"ĠSome":2652,"ĠDan":2653,"ĠNavy":2654,"ĠMet":2655,"Ġrespons":2656,"ĠBer":2657,"ateg":2658,"Ġquar":2659,"Ġended":2660,"ĠMac":2661,"ĠKingdom":2662,"ĠDon":2663,"Ġwall":2664,"Ġturned":2665,"Ġexc":2666,"Ġsocial":2667,"ĠSing":2668,"uture":2669,"Ġstudio":2670,"ems":2671,"ĠDr":2672,"rag":2673,"ĠMid":2674,"iforn":2675,"Ġchange":2676,"ios":2677,"ĠMag":2678,"Ġpraised":2679,"Ġlangu":2680,"Ġnorthern":2681,"Ġpassed":2682,"Ġpiec":2683,"Ġpriv":2684,"Ġincreased":2685,"atural":2686,"ĠWil":2687,"Ġobject":2688,"rup":2689,"heast":2690,"Ġsuper":2691,"Ġbill":2692,"ĠChurch":2693,"ĠDep":2694,"Ġregard":2695,"Ġeduc":2696,"Ġhurricane":2697,"ĠInternational":2698,"ights":2699,"Ġkeep":2700,"Ġcentral":2701,"Ġphys":2702,"Ġ2002":2703,"Ġrelig":2704,"Ġnovel":2705,"Ġunits":2706,"Ġspeed":2707,"Ġappearance":2708,"ĠOff":2709,"Ġpast":2710,"ership":2711,"ĠCharles":2712,"Ġstop":2713,"key":2714,"ended":2715,"oring":2716,"rem":2717,"ĠBut":2718,"ĠCanada":2719,"Ġimmedi":2720,"Ġchurch":2721,"Ġcou":2722,"ocr":2723,"ĠCaliforn":2724,"ĠVirgin":2725,"uter":2726,"Ġdisp":2727,"Ġsym":2728,"ston":2729,"ĠWhite":2730,"Ġordered":2731,"ĠThomas":2732,"Ġmeas":2733,"aughter":2734,"Ġtreat":2735,"ĠMcC":2736,"Ġprob":2737,"Ġtaking":2738,"ĠBay":2739,"ference":2740,"rying":2741,"ĠSen":2742,"ĠPal":2743,"ittee":2744,"sel":2745,"ĠRock":2746,"ĠBrown":2747,"Ġindepend":2748,"ique":2749,"Ġlove":2750,"Ġmove":2751,"Ġsigned":2752,"ĠRes":2753,"ilities":2754,"Ġachie":2755,"Ġbetter":2756,"etwork":2757,"ĠSl":2758,"ump":2759,"Ġpers":2760,"itz":2761,"ĠCalifornia":2762,"ĠMer":2763,"aker":2764,"ĠUnion":2765,"Ġap":2766,"arily":2767,"ecess":2768,"Ġcommerc":2769,"Ġwat":2770,"nel":2771,"Ġinn":2772,"Ġenough":2773,"Ġwinds":2774,"ĠIsland":2775,"Ġpositive":2776,"ma":2777,"ears":2778,"ĠCourt":2779,"Ġaccording":2780,"Ġhous":2781,"ume":2782,"ĠSmith":2783,"ĠMo":2784,"elled":2785,"Ġspent":2786,"Ġgoing":2787,"Ġpot":2788,"Ġabove":2789,"Ġslow":2790,"anks":2791,"apt":2792,"Ġoutside":2793,"ĠGovern":2794,"Ġfilms":2795,"ĠGod":2796,"Ġtold":2797,"Ġfeel":2798,"quare":2799,"Ġfootball":2800,"ĠSam":2801,"Ġpreviously":2802,"uation":2803,"Ġstates":2804,"berg":2805,"Ġclear":2806,"ĠTwo":2807,"Ġrecording":2808,"anding":2809,"Ġquest":2810,"Ġmean":2811,"Ġnine":2812,"leb":2813,"Ġ60":2814,"ĠAward":2815,"Ġ1990":2816,"Ġpur":2817,"ĠAlex":2818,"het":2819,"Ġsubject":2820,"usion":2821,"Ġfailed":2822,"onst":2823,"ows":2824,"hem":2825,"Ġassist":2826,"atin":2827,"Ġcome":2828,"ĠRichard":2829,"ĠCong":2830,"Ġrequired":2831,"ĠAssoci":2832,"reng":2833,"alion":2834,"ĠCompany":2835,"osing":2836,"van":2837,"Ġ45":2838,"Ġelements":2839,"ĠVict":2840,"Ġey":2841,"ida":2842,"Ġcru":2843,"Ġlower":2844,"ĠBra":2845,"Ġreviews":2846,"edy":2847,"Ġinterview":2848,"Ġparts":2849,"Ġphot":2850,"Ġitself":2851,"Ġsil":2852,"Ġthink":2853,"Ġnar":2854,"ĠGermany":2855,"Ġdirected":2856,"ranch":2857,"Ġabs":2858,"ĠIndia":2859,"ship":2860,"isl":2861,"As":2862,"ibility":2863,"Ġdespite":2864,"Ġflow":2865,"Ġcred":2866,"Ġesp":2867,"ĠAc":2868,"Ġcontract":2869,"amer":2870,"oke":2871,"ĠTom":2872,"Ġ185":2873,"ĠÂ£":2874,"Ġdebut":2875,"nes":2876,"ĠChristian":2877,"Ġ?":2878,"ĠTimes":2879,"erved":2880,"Ġaccess":2881,"onna":2882,"ready":2883,"Ġbeginning":2884,"Ġgroups":2885,"oid":2886,"Ġbi":2887,"Ġviol":2888,"Ġsection":2889,"ĠCollege":2890,"ĠStud":2891,"ability":2892,"eal":2893,"Ġwhose":2894,"hester":2895,"ĠGold":2896,"asons":2897,"Ġclaimed":2898,"Ġinternational":2899,"ĠArt":2900,"Ġlines":2901,"Ġasked":2902,"hile":2903,"oviet":2904,"ĠUK":2905,"Ġtransfer":2906,"Ġprevent":2907,"ĠHill":2908,"onse":2909,"mar":2910,"Ġstreng":2911,"Ġscreen":2912,"airs":2913,"Ġgive":2914,"rief":2915,"Ġbeg":2916,"rack":2917,"Ġadditional":2918,"ĠWestern":2919,"ĠMark":2920,"Ġunc":2921,"ĠCast":2922,"Ġfuture":2923,"ĠPeter":2924,"Ġwhom":2925,"Ġfort":2926,"Ġop":2927,"Ġleague":2928,"ĠPat":2929,"ĠSoviet":2930,"Ġgold":2931,"Ġpoor":2932,"ĠDem":2933,"ĠMexic":2934,"lying":2935,"ĠAwards":2936,"Ġdon":2937,"Ġintroduced":2938,"Ġprem":2939,"ites":2940,"Ġevidence":2941,"ĠDespite":2942,"Ġsea":2943,"ĠSpan":2944,"Ġidea":2945,"Ġquickly":2946,"eck":2947,"Ġemb":2948,"Ġalready":2949,"Ġcenter":2950,"atory":2951,"Ġbridge":2952,"Ġcal":2953,"ĠDo":2954,"Ġ32":2955,"ĠForce":2956,"usp":2957,"ĠNY":2958,"ena":2959,"Ġfrequ":2960,"Ġelection":2961,"Ġoccup":2962,"Ġproduct":2963,"Ġpil":2964,"back":2965,"Ġexcept":2966,"Ġ1970":2967,"irth":2968,"Ġdeal":2969,"Ġpen":2970,"ĠThat":2971,"Ġarrived":2972,"ecially":2973,"ĠSoc":2974,"aring":2975,"Ġwestern":2976,"Ġblock":2977,"eum":2978,"ĠGrand":2979,"ĠCoun":2980,"Ġmusical":2981,"Ġusually":2982,"Ġcycl":2983,"Ġcivil":2984,"Ġradio":2985,"Ġ1980":2986,"unt":2987,"liam":2988,"ully":2989,"ergy":2990,"ĠBritain":2991,"Ġfemale":2992,"Ġsometimes":2993,"Ġresponse":2994,"Ġstudy":2995,"ĠFrank":2996,"Ġfood":2997,"Ġdecision":2998,"Ġmoney":2999,"ĠFilm":3000,"Ġmagazine":3001,"ĠBr":3002,"Ġespecially":3003,"Ġissue":3004,"asc":3005,"ĠDay":3006,"omm":3007,"ha":3008,"ĠHot":3009,"liament":3010,"ĠPac":3011,"Ġlab":3012,"rab":3013,"Ġflood":3014,"Ġenv":3015,"Ġsurface":3016,"Ġmight":3017,"Ġliter":3018,"Ġguitar":3019,"aint":3020,"Ġcarried":3021,"gen":3022,"Ġcommunity":3023,"Ġshows":3024,"Ġconstruct":3025,"Ġestimated":3026,"iter":3027,"Ġarran":3028,"Ġremain":3029,"raw":3030,"Ġeastern":3031,"Ġdefeated":3032,"Ġ-":3033,"igan":3034,"Ġremaining":3035,"aries":3036,"Ġminor":3037,"Ġdeterm":3038,"inent":3039,"ĠBen":3040,"ĠVictor":3041,"ĠChic":3042,"ession":3043,"Ġapprox":3044,"Ġlarger":3045,"Ġrap":3046,"Ġ1999":3047,"Ġbecoming":3048,"ulf":3049,"Ġwood":3050,"Ġcomplete":3051,"ror":3052,"Ġpolice":3053,"Ġ36":3054,"Ġmedia":3055,"ĠRob":3056,"porary":3057,"Ġshoot":3058,"Ġsuggested":3059,"Ġentered":3060,"Ġteams":3061,"Ġpressure":3062,"Ġ80":3063,"ĠRh":3064,"Ġcommercial":3065,"Ġdoc":3066,"Ġlyric":3067,"Ġlatter":3068,"Ġinvestig":3069,"Ġanal":3070,"ĠBur":3071,"erve":3072,"ands":3073,"Ġsurround":3074,"Ġmarket":3075,"Ġlo":3076,"tt":3077,"Ġconsider":3078,"sy":3079,"ĠMount":3080,"St":3081,"Ġkey":3082,"Ġstudents":3083,"ises":3084,"Ġconcern":3085,"Ġbrief":3086,"Ġpersonal":3087,"ĠLos":3088,"Ġbur":3089,"Ġprison":3090,"inct":3091,"ederal":3092,"Ġacqu":3093,"Ġcertain":3094,"Ġdiscuss":3095,"Ġcomplet":3096,"Ġeffects":3097,"alled":3098,"ĠMill":3099,"Ġappointed":3100,"Ġhop":3101,"NA":3102,"change":3103,"Ġsummer":3104,"Ġprior":3105,"Ġepisodes":3106,"Ġder":3107,"ĠVirginia":3108,"incip":3109,"Ġtar":3110,"Ġsat":3111,"ĠTra":3112,"II":3113,"enth":3114,"Ġstaff":3115,"Ġemer":3116,"Ġsize":3117,"ĠInf":3118,"lymp":3119,"Ġchanges":3120,"lo":3121,"ulated":3122,"Ġcommission":3123,"imate":3124,"Ġwinning":3125,"ĠFrom":3126,"Ġlimited":3127,"Ġscenes":3128,"Ġriver":3129,"Ġfleet":3130,"Ġrid":3131,"Ġdestroyed":3132,"Ġleaving":3133,"Ġdeg":3134,"ores":3135,"iser":3136,"pris":3137,"Ġpay":3138,"Ġden":3139,"ĠSecond":3140,"ĠTex":3141,"ĠFle":3142,"Ġdraw":3143,"ĠClub":3144,"ga":3145,"ĠOlymp":3146,"rd":3147,"rigade":3148,"Ġself":3149,"ari":3150,"Ġrights":3151,"ĠFlor":3152,"AF":3153,"Ġ75":3154,"Ġprovide":3155,"ournal":3156,"idents":3157,"Ġtrib":3158,"Ġpolic":3159,"ĠIm":3160,"Ġwriter":3161,"ires":3162,"su":3163,"ension":3164,"Ġfail":3165,"que":3166,"ties":3167,"Ġdate":3168,"Ġterrit":3169,"ĠSpanish":3170,"oms":3171,"han":3172,"Ġproposed":3173,"ex":3174,"Ġinfluence":3175,"ĠJackson":3176,"Ġgirl":3177,"Ġkil":3178,"Ġoverall":3179,"ĠLouis":3180,"Ġstructure":3181,"ĠParty":3182,"Ġtransport":3183,"Ġtax":3184,"iral":3185,"Ġequip":3186,"Ġscript":3187,"Ġ1960":3188,"Ġ184":3189,"inese":3190,"Ġdivision":3191,"Ġbr":3192,"Ġ300":3193,"ÃŃ":3194,"be":3195,"Ġagreed":3196,"Ġjud":3197,"atives":3198,"ĠAssociation":3199,"Ġanti":3200,"Ġrunning":3201,"Ġintended":3202,"ift":3203,"ending":3204,"icles":3205,"Ġbow":3206,"Ġtype":3207,"Ġdaughter":3208,"Ġpurch":3209,"sen":3210,"Ġbroadcast":3211,"Ġsupported":3212,"Ġbig":3213,"Ġnearly":3214,"Ġdeep":3215,"Ġwide":3216,"Ġresearch":3217,"Ġestablish":3218,"che":3219,"Ġdi":3220,"imum":3221,"Ġhelped":3222,"iles":3223,"Ġmarried":3224,"Ġmovement":3225,"Ġawarded":3226,"ĠChicago":3227,"Ġmultip":3228,"ili":3229,"ĠGreen":3230,"ny":3231,"ĠLater":3232,"ĠCouncil":3233,"ĠDu":3234,"atively":3235,"ĠJust":3236,"Ġ1998":3237,"acing":3238,"Ġfavor":3239,"ĠTer":3240,"Ġcreate":3241,"ĠChinese":3242,"Ġintens":3243,"Ġsusp":3244,"Ġdiss":3245,"Ġdark":3246,"ĠAdm":3247,"Ġbird":3248,"omer":3249,"teen":3250,"Ġstars":3251,"Ã¶":3252,"ĠCont":3253,"Ġlonger":3254,"Ġcat":3255,"ĠRo":3256,"Ġlanguage":3257,"Ġhigher":3258,"Ġcaptured":3259,"Ġplanned":3260,"mon":3261,"Ġcompared":3262,"Ġincreasing":3263,"Ġfans":3264,"Ġcourse":3265,"uz":3266,"Ġconclud":3267,"ĠIr":3268,"ĠSong":3269,"ien":3270,"Ġchanged":3271,"ĠIf":3272,"bers":3273,"Ġexperience":3274,"Ġ33":3275,"Ġapproximately":3276,"ounds":3277,"Ġrelated":3278,"Ġfeature":3279,"Ġdone":3280,"Ġthemsel":3281,"ĠOver":3282,"Ġthemselves":3283,"Ġfifth":3284,"enty":3285,"Ġliving":3286,"ĠSal":3287,"ĠKore":3288,"abit":3289,"Ġproducer":3290,"ĠEmp":3291,"Ġ70":3292,"tained":3293,"arent":3294,"Ġwithd":3295,"Ġmostly":3296,"Ġtemper":3297,"Ġtracks":3298,"isions":3299,"ĠEdward":3300,"Ġspace":3301,"ĠHistory":3302,"ĠEarly":3303,"ĠOper":3304,"can":3305,"Th":3306,"ĠPacific":3307,"olic":3308,"Ġoperations":3309,"ĠEnter":3310,"ij":3311,"ĠUp":3312,"Ġthus":3313,"Ġdead":3314,"Ġwoman":3315,"umn":3316,"Ġimm":3317,"Ġremains":3318,"Ġquarter":3319,"ĠServ":3320,"ĠBillboard":3321,"Ġsyn":3322,"Ġbring":3323,"thing":3324,"Ġour":3325,"imin":3326,"Ġnatural":3327,"oint":3328,"Ġult":3329,"Ã¼":3330,"vin":3331,"Ġwhether":3332,"Ġsoldiers":3333,"Ġweap":3334,"Ġdram":3335,"Ġconcept":3336,"Ġprobably":3337,"Ġran":3338,"anded":3339,"Al":3340,"bour":3341,"Ġcopies":3342,"rast":3343,"Ġleader":3344,"Ġface":3345,"uth":3346,"Ġbuildings":3347,"Ġreact":3348,"Ġvoice":3349,"Ġlyrics":3350,"Ġcomplex":3351,"Ġboy":3352,"Ġextended":3353,"Ġforward":3354,"Ġdepart":3355,"ĠMont":3356,"Ġboard":3357,"Ġbattles":3358,"iring":3359,"Ġheav":3360,"Ġchall":3361,"itt":3362,"ĠEv":3363,"ging":3364,"vey":3365,"Ġissued":3366,"ospital":3367,"Ġreally":3368,"Ġ1997":3369,"Ġsuffered":3370,"ĠAtlantic":3371,"riage":3372,"urt":3373,"Ġ37":3374,"rate":3375,"Ġcountries":3376,"ĠSun":3377,"ĠScot":3378,"Ġcm":3379,"Ġincludes":3380,"Ġgoals":3381,"Ġimmediately":3382,"ĠLake":3383,"ĠJohnson":3384,"Ġattend":3385,"hood":3386,"Ġmixed":3387,"Ġprivate":3388,"Ġmanager":3389,"Ġcapital":3390,"ĠInter":3391,"Ġbreed":3392,"iant":3393,"Ġofficers":3394,"ĠBack":3395,"Ġlikely":3396,"ĠCongress":3397,"Ġcann":3398,"ĠLove":3399,"hold":3400,"bury":3401,"Ġremoved":3402,"Ġmach":3403,"Ġdistrib":3404,"Ġmeth":3405,"ĠFlorida":3406,"ĠJew":3407,"During":3408,"Ġceleb":3409,"Ġsubsequently":3410,"Ġinitial":3411,"Ġplant":3412,"venue":3413,"Ġincrease":3414,"ĠFranc":3415,"Ġmount":3416,"Ġhealth":3417,"de":3418,"ĠApp":3419,"order":3420,"Ġplans":3421,"Ġcompan":3422,"rol":3423,"ections":3424,"Ġleave":3425,"Ġalways":3426,"Ġfocus":3427,"ĠMost":3428,"Ġstatus":3429,"Ġnetwork":3430,"ria":3431,"Ġvia":3432,"Ġlocation":3433,"Ġservices":3434,"Ġcoin":3435,"Ġvisit":3436,"ĠBig":3437,"ĠFort":3438,"rial":3439,"ams":3440,"ĠTown":3441,"ĠFinal":3442,"Ġmur":3443,"iation":3444,"Ġflag":3445,"Ġoffered":3446,"Ġproblems":3447,"ĠDist":3448,"well":3449,"ĠSea":3450,"Ġcolon":3451,"ĠQueen":3452,"Ġinstr":3453,"ctor":3454,"ĠChina":3455,"aily":3456,"Ġterms":3457,"Ġnorm":3458,"etic":3459,"ously":3460,"Ġapproach":3461,"Ġmodel":3462,"ĠTexas":3463,"wer":3464,"ounted":3465,"Ġfell":3466,"Ġvillage":3467,"ĠOld":3468,"Ġsomething":3469,"Ġadminist":3470,"At":3471,"ĠFollowing":3472,"Ġtons":3473,"ĠKn":3474,"Ġsch":3475,"ironment":3476,"Ġtor":3477,"Ġcounter":3478,"Ġmajority":3479,"ĠCamp":3480,"ĠEarth":3481,"Ġprofessional":3482,"burg":3483,"lor":3484,"ĠTor":3485,"Ġ183":3486,"adium":3487,"ibr":3488,"Ġinters":3489,"Ã³":3490,"Ġgot":3491,"ĠLaw":3492,"stant":3493,"ĠAfrica":3494,"Ġconsist":3495,"uries":3496,"Ġcause":3497,"aches":3498,"ĠPet":3499,"ĠTrans":3500,"ĠRail":3501,"Ġdamaged":3502,"ĠMr":3503,"oe":3504,"ĠLord":3505,"ĠJim":3506,"pan":3507,"olk":3508,"Ġappears":3509,"Ġmeeting":3510,"Ġjob":3511,"Ġconfir":3512,"Ġadop":3513,"ĠCanadian":3514,"Ġranked":3515,"ĠPri":3516,"Ġminute":3517,"Ġlay":3518,"oes":3519,"uf":3520,"Ġindividual":3521,"ĠCenter":3522,"ify":3523,"cean":3524,"ĠTur":3525,"Ġcomposed":3526,"ĠSquadron":3527,"Ġrevealed":3528,"Ġattacks":3529,"Ġflight":3530,"itect":3531,"Ġplot":3532,"Ġang":3533,"ĠAnt":3534,"ĠBoy":3535,"Ġ90":3536,"Ġraised":3537,"reater":3538,"umed":3539,"Ġdiscovered":3540,"reak":3541,"Ġfinanc":3542,"Ġrespectively":3543,"ĠWood":3544,"Ġmakes":3545,"ĠRussian":3546,"Ġnumerous":3547,"gar":3548,"ĠHow":3549,"Ġassociated":3550,"ĠIts":3551,"Ġdomin":3552,"ste":3553,"Ġtakes":3554,"Ġaltern":3555,"ault":3556,"ĠAngeles":3557,"Ġanc":3558,"ĠIII":3559,"Ġinspired":3560,"ĠHighway":3561,"Ġlived":3562,"Ġneeded":3563,"Ġ1995":3564,"ĠKent":3565,"ĠCarol":3566,"Ġlaunched":3567,"Ġgrand":3568,"ription":3569,"rie":3570,"Ġyet":3571,"Ġ34":3572,"Ġcand":3573,"ĠCentral":3574,"Ġnature":3575,"Ġamb":3576,"Ġoccurred":3577,"Ġpow":3578,"ken":3579,"Ġdig":3580,"Ġcontains":3581,"Ġattacked":3582,"Ġshown":3583,"Ġveh":3584,"Ġcoach":3585,"Ġattempted":3586,"estival":3587,"Ġbene":3588,"down":3589,"uments":3590,"uals":3591,"eff":3592,"ka":3593,"ĠOl":3594,"Ġconditions":3595,"Ġmoving":3596,"Ġupper":3597,"Ġgra":3598,"Ġhour":3599,"VD":3600,"iest":3601,"imb":3602,"ective":3603,"Ġsales":3604,"ĠMur":3605,"Ġ38":3606,"ĠMel":3607,"joy":3608,"Ġcollect":3609,"orce":3610,"ĠTV":3611,"aught":3612,"Ġissues":3613,"urity":3614,"ĠYear":3615,"Ġyards":3616,"Ġbirth":3617,"izing":3618,"Ġ1950":3619,"Ġwhole":3620,"Ġexam":3621,"Ġsal":3622,"ĠMartin":3623,"Ġcer":3624,"Ġslight":3625,"Ġ2016":3626,"Ġinformation":3627,"ĠBow":3628,"win":3629,"uing":3630,"Ġfarm":3631,"vert":3632,"oly":3633,"Ġmom":3634,"Ġ1996":3635,"Ġbox":3636,"Ġreferred":3637,"ĠRad":3638,"Ġcritical":3639,"ĠEmpire":3640,"Ġi":3641,"Ġdefeat":3642,"ĠTour":3643,"reme":3644,"Ġincor":3645,"ĠGroup":3646,"Ġnumbers":3647,"Ġsen":3648,"Ġfinally":3649,"Ġsmaller":3650,"Ġresulted":3651,"Ġselected":3652,"Ġelected":3653,"Ġbad":3654,"ĠMiss":3655,"Ġstay":3656,"Ġscient":3657,"ĠRev":3658,"Ġgrant":3659,"Ġqual":3660,"Ġactive":3661,"Ġsinger":3662,"onic":3663,"ĠSir":3664,"Ġprincip":3665,"kin":3666,"itation":3667,"Ġsecret":3668,"Ġmission":3669,"Ġpit":3670,"Ġstandard":3671,"Ġindustry":3672,"uated":3673,"Ġlargely":3674,"enant":3675,"Ġens":3676,"Ġoperation":3677,"andon":3678,"ortun":3679,"ĠBet":3680,"Ġsem":3681,"Ġprec":3682,"Ġassigned":3683,"Ġlink":3684,"oura":3685,"Ġsaf":3686,"Ġthr":3687,"Ġearned":3688,"Ġlegisl":3689,"Ġcommented":3690,"Ġ1994":3691,"ĠItalian":3692,"Ġmale":3693,"ĠSuper":3694,"Ġexpected":3695,"itude":3696,"ya":3697,"oud":3698,"iled":3699,"ĠCorps":3700,"ãĥ":3701,"Ġlisted":3702,"Ġaudience":3703,"lled":3704,"ĠDes":3705,"Ġroy":3706,"Ġsuggest":3707,"Ġcovered":3708,"Ġpurp":3709,"ĠDVD":3710,"Ġsched":3711,"Ġunable":3712,"irection":3713,"Ġheart":3714,"Ġtrade":3715,"ĠBoth":3716,"gr":3717,"Ġartist":3718,"Ġnewsp":3719,"Ġtraditional":3720,"Ġeducation":3721,"ĠDel":3722,"Ġrefused":3723,"Ġdouble":3724,"Ġfriends":3725,"Ġclosed":3726,"agon":3727,"Ġaw":3728,"Ġrecover":3729,"Ġunderst":3730,"Ġattention":3731,"ounts":3732,"Ġprimary":3733,"ĠPenn":3734,"use":3735,"Ġmethod":3736,"ighter":3737,"ĠNot":3738,"ogue":3739,"Ġkind":3740,"Ġtalk":3741,"ĠViet":3742,"Ġsister":3743,"tered":3744,"oo":3745,"Ġplat":3746,"Ġbelow":3747,"Ġofficer":3748,"Ġreason":3749,"ĠGar":3750,"hips":3751,"Ġcontem":3752,"Ġperformances":3753,"Ġability":3754,"Ġenjoy":3755,"Ġ1940":3756,"anced":3757,"Ġdepression":3758,"ĠWales":3759,"Ġmeant":3760,"Ġdeclared":3761,"Ġ49":3762,"isher":3763,"Ġblood":3764,"Ġwalk":3765,"Ġfighting":3766,"Ġgiving":3767,"ples":3768,"Ġword":3769,"Ġcompl":3770,"undred":3771,"Ġletter":3772,"ĠMichigan":3773,"Ġreligious":3774,"Ġcommander":3775,"Ġmiddle":3776,"Ġtheat":3777,"Ġhot":3778,"Ġsett":3779,"Ġbooks":3780,"Ġ180":3781,"ĠMany":3782,"ĠOut":3783,"Ġmax":3784,"ĠJose":3785,"Ġrate":3786,"Ġmatches":3787,"ĠCath":3788,"ona":3789,"Ġrecords":3790,"ĠDis":3791,"Ġconstit":3792,"ĠCr":3793,"Ġnames":3794,"aped":3795,"Ġproduce":3796,"ĠDemocr":3797,"ĠNort":3798,"Ġquestion":3799,"road":3800,"ĠZeal":3801,"utch":3802,"Ġunit":3803,"Ġserious":3804,"Ġcompetition":3805,"Ġtouch":3806,"ounded":3807,"antasy":3808,"Ġcentre":3809,"irt":3810,"Ġvocals":3811,"ims":3812,"ĠMass":3813,"Ġri":3814,"odies":3815,"Ġdisapp":3816,"ĠTest":3817,"ĠMinister":3818,"Ġmention":3819,"Ġabandon":3820,"iences":3821,"20":3822,"ector":3823,"ĠAcad":3824,"Ġrapid":3825,"Ġdocument":3826,"Ġaccount":3827,"icted":3828,"Ġ41":3829,"quar":3830,"Ġnecess":3831,"ux":3832,"Ġkilomet":3833,"ils":3834,"Ġenergy":3835,"Ġ1992":3836,"ĠTeam":3837,"Ġtraff":3838,"ervation":3839,"echan":3840,"ĠCare":3841,"icient":3842,"ares":3843,"Ġconstructed":3844,"Ġdut":3845,"ĠCle":3846,"ening":3847,"Ġtheme":3848,"ĠZealand":3849,"yr":3850,"oses":3851,"Ġris":3852,"ette":3853,"rier":3854,"Ġnearby":3855,"Ġroyal":3856,"Ġstra":3857,"Ġhighly":3858,"Ġseparate":3859,"Ġcas":3860,"Ġpick":3861,"ishop":3862,"edic":3863,"ĠLong":3864,"ails":3865,"Ġcontinue":3866,"Ġprep":3867,"vention":3868,"Ġdrum":3869,"osh":3870,"ĠOx":3871,"Ġeffort":3872,"Ġchief":3873,"Ġpositions":3874,"ĠPre":3875,"ĠFer":3876,"rug":3877,"Ġcombat":3878,"Ġpresented":3879,"Ġtur":3880,"Ġannual":3881,"Ġcontrovers":3882,"Ġreduced":3883,"Ġ400":3884,"oper":3885,"ether":3886,"ĠUnder":3887,"ĠMexico":3888,"ibly":3889,"Ġdirectly":3890,"ieut":3891,"ĠAfrican":3892,"uit":3893,"ĠArch":3894,"Ġlevels":3895,"cel":3896,"ĠFore":3897,"Ġmeans":3898,"Ġcle":3899,"Ġ1930":3900,"Ġnotes":3901,"Ġneigh":3902,"Ġattended":3903,"Ġtried":3904,"ado":3905,"Ġsevent":3906,"emorial":3907,"Ġpractice":3908,"shire":3909,"Ġhar":3910,"ĠTime":3911,"Ġcompos":3912,"Ġforest":3913,"ĠStep":3914,"Ġfast":3915,"ĠFox":3916,"Ġ55":3917,"Ġedition":3918,"Ġtrain":3919,"ĠHaw":3920,"Ġge":3921,"vement":3922,"ita":3923,"Ġnuc":3924,"acher":3925,"arents":3926,"Ġmetal":3927,"Ġtwenty":3928,"Ġwatch":3929,"ĠWal":3930,"Ġstating":3931,"ĠSum":3932,"Ġaccepted":3933,"Ġconcert":3934,"Ġmovie":3935,"Ġarchitect":3936,"osen":3937,"ĠChart":3938,"Ġtext":3939,"hy":3940,"rical":3941,"ĠCons":3942,"Ġrepe":3943,"Ġadvance":3944,"isation":3945,"Ġcandid":3946,"pe":3947,"track":3948,"light":3949,"Ġ1993":3950,"ras":3951,"Ġ1991":3952,"Ġpair":3953,"Ġ179":3954,"stitute":3955,"Ġportray":3956,"Ġdirection":3957,"Ġfr":3958,"eway":3959,"ĠMa":3960,"house":3961,"Ġdism":3962,"Ġlegal":3963,"Ġschools":3964,"Ġseem":3965,"ĠSo":3966,"Äĩ":3967,"illery":3968,"ĠAnother":3969,"lict":3970,"Ġreject":3971,"inem":3972,"MS":3973,"Ġthick":3974,"ĠWall":3975,"wide":3976,"icip":3977,"ĠMajor":3978,"Ġasp":3979,"ĠDepartment":3980,"Ġhorse":3981,"aging":3982,"Ġrecomm":3983,"Ġefforts":3984,"fall":3985,"ĠTre":3986,"Ġmarriage":3987,"ĠMore":3988,"Ġmanaged":3989,"Ġcollege":3990,"Ġpurs":3991,"like":3992,"Ġending":3993,"Ġresulting":3994,"Ġ+":3995,"ĠScotland":3996,"Ġ39":3997,"utions":3998,"Ġwing":3999,"irit":4000,"ieutenant":4001,"ros":4002,"Ġshowed":4003,"ĠBu":4004,"ĠSar":4005,"band":4006,"Ġresponsible":4007,"ĠInfantry":4008,"Ġdropped":4009,"ĠGreek":4010,"Ġinside":4011,"awn":4012,"illed":4013,"Ġnation":4014,"Ġdisplay":4015,"ĠMadonna":4016,"Ġenvironment":4017,"ĠJones":4018,"Ġcases":4019,"Ġkept":4020,"ĠCreek":4021,"Ġcust":4022,"Ġrare":4023,"Ġculture":4024,"Ġmeaning":4025,"Ġrat":4026,"Ġ48":4027,"olf":4028,"Ġdom":4029,"ĠDar":4030,"ĠKh":4031,"Ġincorpor":4032,"pass":4033,"ĠCross":4034,"Ġmorning":4035,"Ġbegins":4036,"Ġcyclone":4037,"ĠBrad":4038,"Ġvariety":4039,"ceeded":4040,"Ġhouses":4041,"Ġwords":4042,"ĠBob":4043,"peror":4044,"Ġcerem":4045,"Ġchampionship":4046,"Ġforms":4047,"ĠChris":4048,"Ġarrest":4049,"ani":4050,"Ġschol":4051,"ini":4052,"ĠMatt":4053,"Ġinches":4054,"Ġyard":4055,"Ġcontinues":4056,"ĠBost":4057,"Ġoil":4058,"ĠManc":4059,"cend":4060,"gl":4061,"Ġmarked":4062,"An":4063,"ĠKenn":4064,"Ġspl":4065,"ĠHel":4066,"Ġperm":4067,"ĠCrit":4068,"Ġscience":4069,"ĠBC":4070,"ols":4071,"ĠAnn":4072,"Ġsymb":4073,"ĠHung":4074,"ecting":4075,"Ġ181":4076,"ittle":4077,"Åį":4078,"gypt":4079,"ĠRecords":4080,"Ġbank":4081,"Ġuses":4082,"Ġeconomic":4083,"ĠPost":4084,"writ":4085,"ĠLeg":4086,"cle":4087,"thel":4088,"bed":4089,"Ġsource":4090,"Ġdefend":4091,"ĠSecret":4092,"ĠStone":4093,"ĠEr":4094,"ĠService":4095,"Ġlear":4096,"ulations":4097,"ĠWilliams":4098,"Ġquality":4099,"ĠTheir":4100,"Ġhundred":4101,"Ġsettle":4102,"ĠVer":4103,"ĠLad":4104,"Ġconducted":4105,"ĠChe":4106,"Ġstarting":4107,"thur":4108,"ĠGames":4109,"Ġimpact":4110,"ĠParliament":4111,"ĠGo":4112,"Ġstrugg":4113,"ĠDou":4114,"Ġspecific":4115,"Ġallowing":4116,"ĠSever":4117,"Ġbeat":4118,"Ġsides":4119,"Ġ1942":4120,"ĠPan":4121,"Ġpresence":4122,"een":4123,"ĠSociety":4124,"Ġamount":4125,"Ġmetres":4126,"Ġdance":4127,"Ġchap":4128,"sych":4129,"ĠMic":4130,"Ġcaptain":4131,"Ġviewers":4132,"Ġdu":4133,"ĠFour":4134,"ĠNews":4135,"ingu":4136,"rown":4137,"Ġsuppl":4138,"ĠTro":4139,"irm":4140,"Ġexhib":4141,"Ġunivers":4142,"ĠEgypt":4143,"Ġrule":4144,"ĠFoot":4145,"Ġdistinct":4146,"Ġtransferred":4147,"Ġmultiple":4148,"Ġpotential":4149,"ding":4150,"Ġforeign":4151,"arian":4152,"ĠTri":4153,"ersey":4154,"ĠBook":4155,"Ġcontrast":4156,"Ġ47":4157,"Ġ65":4158,"inet":4159,"Ġtraffic":4160,"Ġpeaked":4161,"Ġenemy":4162,"itiz":4163,"ĠStan":4164,"Ġyour":4165,"Ġbecomes":4166,"ping":4167,"ĠCommittee":4168,"Ġmess":4169,"Ġfounded":4170,"Ġowned":4171,"Ġthings":4172,"ĠSur":4173,"Ġgreater":4174,"ĠLatin":4175,"Ġportion":4176,"Ġvocal":4177,"Ġconcluded":4178,"ĠArm":4179,"ĠSouthern":4180,"very":4181,"Ġencoun":4182,"Ġopt":4183,"iance":4184,"Ġrespond":4185,"Ġfederal":4186,"Ġattempts":4187,"kn":4188,"ym":4189,"ĠOh":4190,"Ġscoring":4191,"Ġrelatively":4192,"rong":4193,"ĠSince":4194,"Ġcastle":4195,"Ġproperty":4196,"Ġstories":4197,"Ġprimarily":4198,"ellig":4199,"Ġdemonst":4200,"Ġple":4201,"ĠGre":4202,"ĠJer":4203,"Ġfinancial":4204,"ressive":4205,"ĠPrince":4206,"ecause":4207,"Ġactually":4208,"ograp":4209,"ĠLu":4210,"aine":4211,"ĠGeorg":4212,"Ġanimals":4213,"ĠSat":4214,"ider":4215,"alle":4216,"ĠBoston":4217,"ĠSol":4218,"Ġlif":4219,"Ġcollection":4220,"Ġobserved":4221,"anes":4222,"Ġtourn":4223,"Ġopportun":4224,"Ġfeaturing":4225,"Ġtitled":4226,"istics":4227,"fect":4228,"Ġ46":4229,"Ġwriters":4230,"ĠChief":4231,"Ġwrite":4232,"ĠAdmiral":4233,"Ġjournal":4234,"Ġwa":4235,"Ġstrength":4236,"ĠBridge":4237,"Ġinch":4238,"Ġ1944":4239,"ĠVietn":4240,"eds":4241,"umber":4242,"Ġweaken":4243,"Ġmechan":4244,"Ġsituation":4245,"Ġwor":4246,"ĠBattalion":4247,"Ġpaid":4248,"Ġspot":4249,"Ġpremi":4250,"ĠOxford":4251,"Ġparents":4252,"Ġdistance":4253,"Ġcompanies":4254,"ih":4255,"ĠSwed":4256,"ĠClass":4257,"Ġindependent":4258,"lam":4259,"Ġfigure":4260,"mas":4261,"Ġacting":4262,"stein":4263,"ĠCamb":4264,"Ġmel":4265,"Ġonto":4266,"Ġactor":4267,"Ġdivided":4268,"Ġshare":4269,"ĠSil":4270,"Ġ64":4271,"Ġmind":4272,"ĠCommission":4273,"ada":4274,"ĠDen":4275,"ĠHor":4276,"astic":4277,"Ġ43":4278,"perial":4279,"ĠFin":4280,"ĠManchester":4281,"Ġslightly":4282,"ĠOtt":4283,"Ġcollabor":4284,"Ġtarget":4285,"Ġpiece":4286,"anna":4287,"rel":4288,"Ġ42":4289,"Ġfunction":4290,"Ġreform":4291,"Ġselling":4292,"ĠParis":4293,"Ġconcent":4294,"Ġpowerful":4295,"Ġrating":4296,"oration":4297,"Ġtorped":4298,"chest":4299,"ricket":4300,"Ġ44":4301,"Ġrough":4302,"mond":4303,"ĠWin":4304,"Ġinnings":4305,"thlet":4306,"Ġtoday":4307,"Ġplays":4308,"Ġlot":4309,"Ġbroke":4310,"uge":4311,"Ġera":4312,"ĠSpec":4313,"annel":4314,"Ġactions":4315,"Ġultimately":4316,"Ġwaters":4317,"Ġsquare":4318,"ĠJoseph":4319,"Ġcho":4320,"Ġtrial":4321,"la":4322,"osaur":4323,"ĠDef":4324,"istry":4325,"ĠStephen":4326,"itan":4327,"ĠBat":4328,"ĠCaptain":4329,"ĠColumb":4330,"ĠJeff":4331,"illa":4332,"Ġtend":4333,"Ġmaximum":4334,"ĠBBC":4335,"Ġdise":4336,"ĠLife":4337,"load":4338,"Ġpilot":4339,"Ġbound":4340,"Ġblue":4341,"Ġgar":4342,"Ġinterp":4343,"Ġcompletely":4344,"rupt":4345,"Ġsought":4346,"Ġ1920":4347,"Ġlog":4348,"ĠHarrison":4349,"oti":4350,"Ġess":4351,"ĠAcademy":4352,"Ġscale":4353,"Ġsociety":4354,"ĠEntertain":4355,"under":4356,"mark":4357,"Ġ1945":4358,"ĠTw":4359,"Ġmainly":4360,"Ġbehav":4361,"Ġdesignated":4362,"Ġhus":4363,"ĠTim":4364,"ĠFred":4365,"Ġofficials":4366,"ota":4367,"Ġ1941":4368,"za":4369,"AS":4370,"omy":4371,"Ġcombined":4372,"Ġstruck":4373,"Ġpolicy":4374,"Ġconver":4375,"Ġ150":4376,"ylvan":4377,"ĠMuseum":4378,"ĠCroat":4379,"Ġactivity":4380,"onn":4381,"cers":4382,"Ġtransl":4383,"Ġsay":4384,"Ġinfluenced":4385,"ĠLine":4386,"olved":4387,"Ġwear":4388,"Ġvess":4389,"ĠSeries":4390,"Ġsearch":4391,"Ġalongside":4392,"ented":4393,"Ġcalling":4394,"Ġthous":4395,"racted":4396,"Ġnortheast":4397,"ĠBrigade":4398,"ĠLuc":4399,"while":4400,"Ġsout":4401,"iano":4402,"Ġseconds":4403,"Ġseg":4404,"Ġbatter":4405,"ala":4406,"ĠAmericans":4407,"TV":4408,"orses":4409,"ĠArab":4410,"Ġwinter":4411,"Ġsources":4412,"ĠPop":4413,"Ġbackground":4414,"ĠWay":4415,"udd":4416,"phy":4417,"Ġcrow":4418,"ĠOs":4419,"Ġwebs":4420,"Ġnews":4421,"Ġplatform":4422,"rative":4423,"Ġice":4424,"Ġnaval":4425,"Ġthir":4426,"ĠItaly":4427,"Ġsuc":4428,"Ġrecent":4429,"Ġgained":4430,"Ġmem":4431,"ĠGra":4432,"ote":4433,"Ġtheory":4434,"ĠRegiment":4435,"Ġnominated":4436,"ĠSaint":4437,"ero":4438,"adel":4439,"Ġartists":4440,"quarters":4441,"HL":4442,"Ġproblem":4443,"ĠIre":4444,"Ġpromoted":4445,"ĠEntertainment":4446,"ĠThree":4447,"Ġelectric":4448,"Ġwidely":4449,"Ġconfirmed":4450,"ĠForm":4451,"Ġsystems":4452,"ĠAvenue":4453,"ube":4454,"Ġreaching":4455,"Ġpassing":4456,"pson":4457,"Ġproved":4458,"Ġresults":4459,"ĠHal":4460,"Ġ52":4461,"ibrary":4462,"ĠLittle":4463,"Ġconflict":4464,"Ġsubsequent":4465,"Ġalbums":4466,"Ġinvasion":4467,"Ġexplained":4468,"Ġgreatest":4469,"ĠFleet":4470,"ĠIreland":4471,"ĠConf":4472,"town":4473,"Ġcorn":4474,"aling":4475,"Ġir":4476,"Ġwick":4477,"Ġcontent":4478,"Ġcoming":4479,"Ġsn":4480,"Ġpeace":4481,"Ġresist":4482,"Ġcharge":4483,"Ġsixth":4484,"Ġcounty":4485,"Ġhero":4486,"Ġnorthwest":4487,"ĠVan":4488,"ĠAlb":4489,"oured":4490,"iro":4491,"ĠSk":4492,"Ġweather":4493,"Ġshortly":4494,"aga":4495,"Ġ182":4496,"Ġadj":4497,"grad":4498,"ĠLee":4499,"Ġserve":4500,"Ġcausing":4501,"Ġ1943":4502,"Ġversions":4503,"Ġpath":4504,"Ġ1989":4505,"Ġsays":4506,"Ġsust":4507,"itness":4508,"Ġborder":4509,"ĠMod":4510,"Ġexpressed":4511,"yond":4512,"Ġreception":4513,"ĠWind":4514,"iced":4515,"Ġburn":4516,"Ġseek":4517,"Ġ51":4518,"Ġresidents":4519,"bon":4520,"Ġchem":4521,"Ġcities":4522,"ĠGood":4523,"Ġsoundtrack":4524,"ansion":4525,"Ġemot":4526,"ĠCatholic":4527,"ĠCarl":4528,"Ġseasons":4529,"ips":4530,"ĠValley":4531,"Ġgreen":4532,"Ġsense":4533,"Ġappearances":4534,"ĠMax":4535,"ategory":4536,"Ġhospital":4537,"yon":4538,"Ġsexual":4539,"AA":4540,"ĠVictoria":4541,"Ġpun":4542,"Ġrequire":4543,"ĠEll":4544,"infall":4545,"Ġidentified":4546,"ighth":4547,"Ġphysical":4548,"Ġhands":4549,"Ġartillery":4550,"Ġolder":4551,"Ġiron":4552,"unction":4553,"ĠHurricane":4554,"arden":4555,"olt":4556,"Ġdedic":4557,"Ġoffer":4558,"Ġtrue":4559,"Ġtells":4560,"Ġkg":4561,"ĠSant":4562,"ysis":4563,"Ġrepresented":4564,"ĠLo":4565,"ancy":4566,"Ġweapons":4567,"Ġextra":4568,"Ġpal":4569,"aded":4570,"Ġahead":4571,"Ġla":4572,"Ġgas":4573,"eption":4574,"ĠLiber":4575,"ĠRay":4576,"ylvania":4577,"Ġheavily":4578,"ĠNorm":4579,"ronic":4580,"Ġeas":4581,"ĠNin":4582,"lers":4583,"ĠLight":4584,"ĠMiddle":4585,"ĠAut":4586,"Ġsupp":4587,"ĠShow":4588,"abeth":4589,"itable":4590,"Ġavoid":4591,"ĠBus":4592,"Ġdefense":4593,"Ġagg":4594,"ĠCommun":4595,"Ġchallen":4596,"Ġalone":4597,"Ġapparent":4598,"Ġfloor":4599,"Ġstudent":4600,"Ġspread":4601,"Ġimage":4602,"Ġstudies":4603,"ĠCharl":4604,"known":4605,"Ġofficially":4606,"Ġdistrict":4607,"ĠWeek":4608,"Ġhusband":4609,"Ġbit":4610,"ĠTop":4611,"Ġexecutive":4612,"Ġinstit":4613,"essions":4614,"bur":4615,"ĠDutch":4616,"Ġconsisted":4617,"Ġorganization":4618,"Ġcapture":4619,"Ġprominent":4620,"Ġwild":4621,"Ġsend":4622,"Ġdebuted":4623,"ĠProdu":4624,"Ġfired":4625,"Ġinjury":4626,"ĠLive":4627,"Ġpack":4628,"Ġinstrument":4629,"Ġequipment":4630,"Ġstone":4631,"ports":4632,"Ġresc":4633,"Ġprepar":4634,"ĠHistor":4635,"Ġfigures":4636,"Ġexped":4637,"Ġpattern":4638,"Ġargued":4639,"ias":4640,"Ġsurpris":4641,"By":4642,"pool":4643,"Ġaired":4644,"ushed":4645,"urban":4646,"Ġeth":4647,"Ġgrowth":4648,"ĠDun":4649,"Ġcouple":4650,"ĠMat":4651,"ĠIll":4652,"ĠRam":4653,"Ġpict":4654,"Ġhun":4655,"Ġdoing":4656,"Ġring":4657,"acity":4658,"Ġbud":4659,"Ġreturning":4660,"Ġgraph":4661,"Ġcontemporary":4662,"Ġmagn":4663,"Ġpoet":4664,"Ġcert":4665,"Ġpan":4666,"lines":4667,"ĠSa":4668,"ĠRy":4669,"Ġweight":4670,"ees":4671,"rat":4672,"Ġox":4673,"rog":4674,"hew":4675,"ĠWork":4676,"Ġdoub":4677,"Ġstep":4678,"Ġlaid":4679,"ĠTay":4680,"Ġearth":4681,"Ġleaders":4682,"Ġmatter":4683,"ĠTod":4684,"Ġhabit":4685,"Ġpieces":4686,"Ġtun":4687,"appen":4688,"Ġaffected":4689,"ĠCivil":4690,"Ġ600":4691,"ĠKar":4692,"ĠAlbert":4693,"ĠMen":4694,"Ġshell":4695,"Ġrang":4696,"Ġmaintained":4697,"inson":4698,"Ġpropos":4699,"ĠFre":4700,"Ġoccasion":4701,"Ġtermin":4702,"When":4703,"emic":4704,"ifying":4705,"Ġvisited":4706,"Ġcommunic":4707,"Ġhere":4708,"Ġcomes":4709,"ental":4710,"Ġmaintain":4711,"ola":4712,"ĠYoung":4713,"Ġcriticized":4714,"Ġrain":4715,"Ġspeech":4716,"Ġactivities":4717,"ĠBond":4718,"ĠDi":4719,"Ġhyd":4720,"stone":4721,"ĠJul":4722,"ĠEliz":4723,"ĠCarolina":4724,"acement":4725,"ĠNorthern":4726,"eed":4727,"ockey":4728,"ĠFootball":4729,"ĠFar":4730,"Ġexec":4731,"Ġattract":4732,"ĠStorm":4733,"Ġhall":4734,"Ġcitiz":4735,"Ġemph":4736,"Ġreign":4737,"ocked":4738,"Ġcrowd":4739,"Ġtoward":4740,"Ġtournament":4741,"Ġdrug":4742,"Ġsingles":4743,"uls":4744,"ĠDam":4745,"Ġtrees":4746,"ĠDirect":4747,"Ġsenior":4748,"Ġreference":4749,"Ġformation":4750,"elve":4751,"Ġadapt":4752,"ners":4753,"Ġsurre":4754,"Ġsetting":4755,"Ġmedical":4756,"Ġmurder":4757,"ivity":4758,"ĠHomer":4759,"Ġtrying":4760,"Ġworldwide":4761,"Ġterritory":4762,"amber":4763,"estic":4764,"agn":4765,"Ġ53":4766,"yer":4767,"Ġbul":4768,"uct":4769,"ruit":4770,"Ġstations":4771,"Ġ1987":4772,"ĠBre":4773,"Ġnegoti":4774,"gian":4775,"Ġdog":4776,"ĠSeveral":4777,"ĠDistrict":4778,"ĠSystem":4779,"Ġbirds":4780,"embly":4781,"Ġdoll":4782,"Ġfellow":4783,"Ġmachine":4784,"Ġclaims":4785,"Ġgod":4786,"Ġdispl":4787,"Ġ85":4788,"ĠSub":4789,"gu":4790,"ĠFantasy":4791,"ĠGal":4792,"ĠGovernment":4793,"Ġcell":4794,"omers":4795,"Ġhistorian":4796,"Ġaccident":4797,"Ġ1988":4798,"resh":4799,"Ġrisk":4800,"ĠHolly":4801,"Ġload":4802,"Ġrainfall":4803,"uled":4804,"Ġfully":4805,"bit":4806,"ayer":4807,"Ġtherefore":4808,"ĠTropical":4809,"Ġsplit":4810,"Ġuniversity":4811,"Ġguest":4812,"Ġvalue":4813,"Ġtreatment":4814,"ĠBackground":4815,"ĠOcean":4816,"Ġchosen":4817,"ĠOrig":4818,"ĠGuard":4819,"ĠScottish":4820,"rance":4821,"velopment":4822,"Ġgovernor":4823,"Ġsens":4824,"ĠTem":4825,"Ġsupply":4826,"ĠHa":4827,"rael":4828,"Ġtwice":4829,"Ġfrequently":4830,"Ġreports":4831,"stitution":4832,"eller":4833,"ĠRog":4834,"ordin":4835,"ĠStudios":4836,"Ġdyn":4837,"illy":4838,"Ġleaves":4839,"Ġut":4840,"ĠHard":4841,"Ġremark":4842,"Ġpaper":4843,"ĠField":4844,"Ġfaced":4845,"ampion":4846,"ledge":4847,"aly":4848,"Ġwalls":4849,"izes":4850,"ĠGovernor":4851,"ĠSenate":4852,"ĠHome":4853,"Ġopin":4854,"azz":4855,"Ġlabel":4856,"ĠPolish":4857,"Ġfollows":4858,"ĠPenns":4859,"Ġoperated":4860,"Ġsurrounding":4861,"min":4862,"Ġwounded":4863,"Ġplanet":4864,"Ġgrew":4865,"ĠAdd":4866,"Ġbillion":4867,"ĠGirl":4868,"ĠDuke":4869,"ĠBeat":4870,"ufact":4871,"rect":4872,"ĠDev":4873,"Ġswe":4874,"Ġcontained":4875,"ĠMarsh":4876,"ĠDaniel":4877,"ĠRom":4878,"Ġherself":4879,"ĠColon":4880,"onents":4881,"orter":4882,"ĠEastern":4883,"resp":4884,"Ġcondition":4885,"Ġmanufact":4886,"Ġbal":4887,"Ġhorses":4888,"gend":4889,"Ġdegree":4890,"Ġcolor":4891,"isco":4892,"Ġaccompan":4893,"ety":4894,"mit":4895,"Ġsle":4896,"Ġpasses":4897,"Ġtypically":4898,"ĠRos":4899,"Ġescape":4900,"antly":4901,"ĠJud":4902,"Ġunf":4903,"Ġbrown":4904,"ĠChristmas":4905,"Ġsimply":4906,"Ġreinf":4907,"Ġmaster":4908,"Ġfuel":4909,"isters":4910,"Ġ54":4911,"Ã¨":4912,"ĠAllied":4913,"ĠBecause":4914,"utation":4915,"ĠPen":4916,"Ġrailway":4917,"Ġdang":4918,"Ġelement":4919,"ĠLike":4920,"Ġlives":4921,"ĠNight":4922,"Ġdraft":4923,"fully":4924,"Ġeditor":4925,"Ġarms":4926,"Ġorders":4927,"ĠLew":4928,"aming":4929,"ĠRod":4930,"Ġserving":4931,"Ġfan":4932,"uous":4933,"Ġphil":4934,"Ġcasual":4935,"Ġcamer":4936,"Ġmoment":4937,"Ġauthority":4938,"ographer":4939,"Ġnothing":4940,"Ġvote":4941,"more":4942,"Ġchose":4943,"rich":4944,"Ġworkers":4945,"Ġnative":4946,"ucky":4947,"Ġcannot":4948,"ricult":4949,"Ġconsecutive":4950,"Ġ97":4951,"Ġopposed":4952,"Ġnewly":4953,"Ġunknown":4954,"Ġ95":4955,"ĠJon":4956,"Ġparticipated":4957,"Ġ56":4958,"Ġ1986":4959,"ancing":4960,"Ġexperiment":4961,"isf":4962,"Ġgrowing":4963,"Ġemphas":4964,"Ġbass":4965,"Ġpsych":4966,"Ġwebsite":4967,"ĠCorn":4968,"Ġattrib":4969,"eld":4970,"ager":4971,"ĠOperation":4972,"Ġfair":4973,"ãĤ":4974,"FA":4975,"Ġproducers":4976,"ĠBart":4977,"Ġlosing":4978,"Ġbenef":4979,"Ġadvanced":4980,"anda":4981,"Ġadopted":4982,"Ã¤":4983,"Ġfilming":4984,"Ġheard":4985,"Ġoffensive":4986,"ilies":4987,"ĠFestival":4988,"imens":4989,"Ġspirit":4990,"Ġopposition":4991,"Ġsevere":4992,"Ġguard":4993,"Ġfeed":4994,"ĠCastle":4995,"pton":4996,"Ġextend":4997,"ype":4998,"Ġfiction":4999,"Ġsequence":5000,"Ġbasis":5001,"Ġactors":5002,"ĠIslands":5003,"orship":5004,"aven":5005,"Ġcouncil":5006,"Ġrom":5007,"Ġsquadron":5008,"Ġcapacity":5009,"ĠPers":5010,"ĠÎ":5011,"TC":5012,"Ġends":5013,"Ġnewspaper":5014,"Ġprin":5015,"uses":5016,"zy":5017,"Ġast":5018,"Ġrear":5019,"ura":5020,"Ġweak":5021,"Ġadvant":5022,"Ġabandoned":5023,"ĠWilson":5024,"Ġ177":5025,"ĠTaylor":5026,"uman":5027,"Ġcompar":5028,"ĠSound":5029,"Ġrival":5030,"isers":5031,"Ġprompt":5032,"Ġhonor":5033,"lement":5034,"ables":5035,"iated":5036,"tar":5037,"ĠPennsylvania":5038,"Ġflying":5039,"Ġkick":5040,"BA":5041,"Ġelev":5042,"ĠBor":5043,"Ġenter":5044,"ĠElizabeth":5045,"Ġcoal":5046,"ĠJac":5047,"ocated":5048,"ĠExp":5049,"Ġcreating":5050,"ĠJoe":5051,"ĠIrish":5052,"Ġpoll":5053,"Ġfilmed":5054,"Ġlaunch":5055,"Ġhappen":5056,"ĠAndrew":5057,"Ġdeploy":5058,"ĠReception":5059,"Ġnormal":5060,"Ġregarded":5061,"Ġincident":5062,"Ġexpansion":5063,"ĠJersey":5064,"Ġcriticism":5065,"Ġindividuals":5066,"Ġhomes":5067,"ĠLand":5068,"ĠGall":5069,"Ġagreement":5070,"ĠAlexander":5071,"ĠCard":5072,"Ġbeyond":5073,"Ġspect":5074,"ounger":5075,"Ġdelay":5076,"Ġ178":5077,"apers":5078,"Ġspring":5079,"Ġsail":5080,"Ġfailure":5081,"ĠTech":5082,"Ġevac":5083,"iner":5084,"Ġsports":5085,"Ġ76":5086,"Ġliber":5087,"Ġdismiss":5088,"Ġchair":5089,"Ġeye":5090,"Ġfamous":5091,"Ġinte":5092,"ĠSpain":5093,"ĠBlue":5094,"Ġvo":5095,"Ġboat":5096,"Although":5097,"Ġmeasure":5098,"ĠBab":5099,"ĠCa":5100,"Ġpossibly":5101,"Ġhistorical":5102,"ĠMike":5103,"imet":5104,"ima":5105,"ĠCoast":5106,"Ġnegative":5107,"Ġ1939":5108,"iana":5109,"Ġmob":5110,"ĠCat":5111,"ĠDet":5112,"Ġbodies":5113,"ĠSS":5114,"ĠHead":5115,"Ġprogress":5116,"ĠSquare":5117,"Ġachieved":5118,"Ġcontact":5119,"ĠAre":5120,"Ġroles":5121,"ifications":5122,"Ġbelieve":5123,"Ġsilver":5124,"Ġstrike":5125,"ico":5126,"ĠMD":5127,"ĠWat":5128,"Ġkilling":5129,"Ġnarrow":5130,"Ġretired":5131,"Ġur":5132,"Ġideas":5133,"ienced":5134,"Ġdrive":5135,"onent":5136,"Ġdisease":5137,"mosp":5138,"ĠInstitute":5139,"ĠBroad":5140,"och":5141,"Ġpet":5142,"Ġpersonnel":5143,"Ġtorpedo":5144,"war":5145,"Ġtask":5146,"andy":5147,"ĠInst":5148,"Ġimag":5149,"Ġdiam":5150,"Ġbriefly":5151,"ocks":5152,"kins":5153,"Ġtower":5154,"erc":5155,"Ġarrang":5156,"edom":5157,"Ġarmed":5158,"imal":5159,"Ġperman":5160,"Ġeffective":5161,"Ġtree":5162,"Ġapplic":5163,"iny":5164,"ĠWW":5165,"Ġ61":5166,"Ġrepeated":5167,"Ġ66":5168,"Ġ1968":5169,"Ġkilometres":5170,"Ġroads":5171,"Ġreceive":5172,"Ġgranted":5173,"Ġadministration":5174,"Ġnecessary":5175,"Ġbudget":5176,"ĠRevolution":5177,"ĠBul":5178,"Ġrejected":5179,"Ġinterchange":5180,"enger":5181,"oles":5182,"Ġ1985":5183,"Ġtwelve":5184,"Ġgross":5185,"Ġtable":5186,"ĠVen":5187,"Ġinh":5188,"kes":5189,"ĠIsrael":5190,"Ġinfantry":5191,"Ġcolumn":5192,"ĠRepublican":5193,"Ġleadership":5194,"Ġimproved":5195,"ĠSund":5196,"ĠCD":5197,"worth":5198,"Ġyellow":5199,"ĠHarry":5200,"iments":5201,"Ġextensive":5202,"Ġturns":5203,"avalry":5204,"aved":5205,"ĠEnd":5206,"Ġdata":5207,"ĠFam":5208,"ĠLind":5209,"Ġparalle":5210,"Ġlands":5211,"oma":5212,"Ġmanagement":5213,"Ġstraight":5214,"Ġpurpose":5215,"Ġlanding":5216,"Ġseat":5217,"Ġplants":5218,"Ġexpress":5219,"zil":5220,"oln":5221,"ĠRA":5222,"Ġmile":5223,"Ġappl":5224,"ĠFe":5225,"Ġdefin":5226,"ĠDoctor":5227,"Ġcrossing":5228,"Ġdescribes":5229,"cÃ©":5230,"ĠWild":5231,"ĠHy":5232,"Ġexpanded":5233,"Ġbroken":5234,"ĠBoard":5235,"iÄĩ":5236,"Ġsuccessfully":5237,"Ġsolo":5238,"Ġfranch":5239,"ĠCub":5240,"lusion":5241,"Ġchoice":5242,"Ġintellig":5243,"adelph":5244,"rin":5245,"Ġtru":5246,"Ġfought":5247,"Ġlearn":5248,"set":5249,"ĠMul":5250,"Ġdeliver":5251,"Ġdidn":5252,"ĠWhat":5253,"Ġchor":5254,"gers":5255,"Ġanimal":5256,"Ġorganized":5257,"uate":5258,"ĠAlbum":5259,"Following":5260,"Ġexplos":5261,"Ġcaught":5262,"Ġ800":5263,"Ġroof":5264,"Ġexcl":5265,"ĠPublic":5266,"Ġvehicles":5267,"Ġsuggests":5268,"ĠUl":5269,"Ġcommissioned":5270,"ĠSecretary":5271,"etball":5272,"ĠThough":5273,"Ġancient":5274,"haps":5275,"Ar":5276,"ĠRet":5277,"Ġglob":5278,"Ġacquired":5279,"stream":5280,"rif":5281,"Ġplaces":5282,"ĠPhiladelph":5283,"Ġdrama":5284,"Ġcommittee":5285,"ĠIS":5286,"ella":5287,"ĠOhio":5288,"Ġ1984":5289,"Ġcreation":5290,"Ġcomedy":5291,"uan":5292,"attle":5293,"ĠArthur":5294,"ĠElect":5295,"Ġ57":5296,"Ġfat":5297,"Ġtypes":5298,"Ġarticle":5299,"appy":5300,"Ġgives":5301,"Ġunsu":5302,"ĠClark":5303,"Ġseventh":5304,"ĠCy":5305,"Ġprefer":5306,"Ġsoft":5307,"akers":5308,"Ġ120":5309,"Ġwave":5310,"Ġnuclear":5311,"ĠMir":5312,"ii":5313,"arts":5314,"ĠAsh":5315,"ĠBefore":5316,"aith":5317,"zer":5318,"etts":5319,"Ġauthorities":5320,"ĠUs":5321,"umes":5322,"ĠPhiladelphia":5323,"oted":5324,"Ġcontain":5325,"Ġheadquarters":5326,"gn":5327,"Ġsecurity":5328,"Ġdetermined":5329,"Ġtrav":5330,"Ġislands":5331,"Ġcenturies":5332,"Ġroll":5333,"Ġcommonly":5334,"ĠWrit":5335,"Ġbott":5336,"Ġgenus":5337,"Ġstreet":5338,"Ġrecently":5339,"Ġmentioned":5340,"ĠLiver":5341,"ĠProt":5342,"Ġbeaut":5343,"Ġlooking":5344,"Ġcontrolled":5345,"Ġ1967":5346,"Ġfavour":5347,"ĠLes":5348,"Ġencoura":5349,"restling":5350,"ipl":5351,"ĠWars":5352,"amin":5353,"Ġaim":5354,"ev":5355,"Ġhousehold":5356,"ĠGeorgia":5357,"Ġsets":5358,"Ġfamilies":5359,"Ġacad":5360,"Ġbattalion":5361,"Ġadvert":5362,"Ġdecre":5363,"ĠMov":5364,"Ġfinds":5365,"uting":5366,"ishes":5367,"There":5368,"Ġsuppor":5369,"Ġstanding":5370,"Ġwithdraw":5371,"Ġdrop":5372,"ĠFurther":5373,"Ġillust":5374,"tendo":5375,"Ġunp":5376,"outs":5377,"Ġsinging":5378,"ĠRussia":5379,"Ġreflect":5380,"Ġfish":5381,"ĠHit":5382,"Ġven":5383,"Ġdial":5384,"ĠBru":5385,"Ġsac":5386,"itled":5387,"Ġunique":5388,"ĠSher":5389,"ĠBurn":5390,"Ġprotect":5391,"Ġtouchdown":5392,"Ġheight":5393,"Ġdeck":5394,"Ġcontaining":5395,"Ġcultural":5396,"Ġentirely":5397,"ĠCambridge":5398,"Ġdefence":5399,"Ġfinish":5400,"water":5401,"Ġorchest":5402,"Ġcontributed":5403,"oh":5404,"Ġtry":5405,"illing":5406,"ĠOf":5407,"incoln":5408,"ĠTy":5409,"ĠAsia":5410,"Ġmist":5411,"Ġthemes":5412,"Ġprovides":5413,"ĠEach":5414,"ĠKorean":5415,"Ġyounger":5416,"apore":5417,"Ġflooding":5418,"pping":5419,"ĠPrime":5420,"ĠEp":5421,"ĠMah":5422,"room":5423,"Ġpurchased":5424,"ĠNintendo":5425,"Ġatmosp":5426,"ĠColumbia":5427,"ĠArg":5428,"Ġtitles":5429,"Ġmis":5430,"Ġ58":5431,"Ġdefensive":5432,"Ġawards":5433,"Station":5434,"va":5435,"Ġ74":5436,"ulate":5437,"Ġarrival":5438,"Ġconvers":5439,"Ġpowers":5440,"Ġscheduled":5441,"icial":5442,"Ġaccompanied":5443,"wall":5444,"ĠCommon":5445,"ĠProduction":5446,"Ġthing":5447,"Ġresemb":5448,"Ġ1983":5449,"agan":5450,"respond":5451,"Ġexpedition":5452,"Ġunus":5453,"rons":5454,"inity":5455,"ĠJewish":5456,"Ġperfect":5457,"Ġquite":5458,"Ġceremony":5459,"Ġexisting":5460,"ĠFrancisco":5461,"Ġworth":5462,"Ġlocations":5463,"Ġperforming":5464,"ĠEarl":5465,"atures":5466,"Ġinteract":5467,"wick":5468,"Ġadvantage":5469,"Ġdedicated":5470,"hens":5471,"ĠLar":5472,"ĠBad":5473,"laim":5474,"acted":5475,"ĠOffice":5476,"ĠPerson":5477,"Ġ1964":5478,"Ġ1969":5479,"Ġphilos":5480,"Ġcomputer":5481,"hol":5482,"ĠLincoln":5483,"Ġrequest":5484,"While":5485,"Ġextrem":5486,"eg":5487,"Ġbat":5488,"ĠBrazil":5489,"dy":5490,"Ġstore":5491,"ĠNever":5492,"Ġoccupied":5493,"Ġsquad":5494,"Ġintensity":5495,"yles":5496,"Ġ1914":5497,"Ġfresh":5498,"Ġcarry":5499,"ĠSingapore":5500,"usc":5501,"Ġwhy":5502,"Ġmounted":5503,"iling":5504,"Ġ1918":5505,"ashion":5506,"ĠGil":5507,"Ġfix":5508,"Ġnob":5509,"ĠRel":5510,"ĠChild":5511,"ilton":5512,"ĠLiverpool":5513,"Ġmouth":5514,"Ġtail":5515,"Ġconsists":5516,"ĠPlayStation":5517,"ĠSR":5518,"rations":5519,"Ġfirm":5520,"Ġ1971":5521,"Ġclosely":5522,"Ġmic":5523,"ker":5524,"Ġcricket":5525,"Ġcurrently":5526,"Ġsession":5527,"Ġlic":5528,"ava":5529,"Ġtim":5530,"ĠDark":5531,"fort":5532,"zant":5533,"ĠCarey":5534,"ĠHay":5535,"Ġsimple":5536,"Ġindustrial":5537,"Ġegg":5538,"Ġvari":5539,"pper":5540,"Ġ1966":5541,"Ġelimin":5542,"ns":5543,"ĠHun":5544,"ĠJenn":5545,"Ġpiano":5546,"Ġ59":5547,"Ġfacilities":5548,"ĠâĪ":5549,"Ġ1982":5550,"Ġsupporting":5551,"Ġboats":5552,"Ġrow":5553,"ĠDisney":5554,"Ġcold":5555,"Ġ1972":5556,"ĠRol":5557,"Ġdrawn":5558,"mouth":5559,"ĠBalt":5560,"Ġprotection":5561,"Ġrated":5562,"ware":5563,"Ġbelong":5564,"Ġty":5565,"ĠJean":5566,"Ġtrains":5567,"ĠTam":5568,"Ġrot":5569,"Ġ1979":5570,"ba":5571,"Ġrise":5572,"ĠDie":5573,"Ġdefined":5574,"Ġselection":5575,"Ġpros":5576,"Ġsteam":5577,"Ġsubmar":5578,"ĠConference":5579,"ĠLis":5580,"otic":5581,"Ġstructures":5582,"ua":5583,"Ġharm":5584,"Ġregions":5585,"verse":5586,"Ġprotected":5587,"awa":5588,"Ġcalls":5589,"ĠShort":5590,"Ġhair":5591,"ĠGi":5592,"ĠRailway":5593,"gest":5594,"ingly":5595,"ĠOlympic":5596,"rant":5597,"ĠHon":5598,"Ġcomic":5599,"Ġmotion":5600,"ĠPot":5601,"Ch":5602,"ĠByzant":5603,"Ġfocused":5604,"Ġaid":5605,"Ġthrow":5606,"Ġlap":5607,"ĠTurn":5608,"ĠMot":5609,"Ġreceiving":5610,"With":5611,"Ġlabor":5612,"Ġengaged":5613,"Ġshark":5614,"Ġshooting":5615,"Ġopportunity":5616,"Ġ1965":5617,"iration":5618,"ĠBrook":5619,"ĠPeople":5620,"Ġcorrespond":5621,"Ġanalysis":5622,"ourney":5623,"Ġmotor":5624,"Ġsport":5625,"Ġcitizens":5626,"Ġ#":5627,"osa":5628,"ĠNHL":5629,"Ġnotable":5630,"Ġstrengt":5631,"Ġadap":5632,"Ġ99":5633,"Ġ1975":5634,"Ġobserv":5635,"ĠVol":5636,"ira":5637,"Ã¸":5638,"ĠJr":5639,"ĠThrough":5640,"inger":5641,"Ġexperienced":5642,"uzz":5643,"Ġmountain":5644,"sey":5645,"olid":5646,"Ġholding":5647,"ĠAnderson":5648,"ĠBas":5649,"ults":5650,"ĠGulf":5651,"ĠGermans":5652,"Ġconference":5653,"Ġproviding":5654,"ĠPu":5655,"ĠLewis":5656,"ĠEmperor":5657,"ĠDevelopment":5658,"ĠOrder":5659,"Ġsoutheast":5660,"Ġresident":5661,"ĠPress":5662,"Ġvisual":5663,"Ġeyes":5664,"Ġmut":5665,"Ġhired":5666,"Ġviewed":5667,"inth":5668,"Ġcharts":5669,"Ġrapidly":5670,"ĠHollywood":5671,"unior":5672,"Ġmerch":5673,"Ġcasualties":5674,"Ġbranch":5675,"ifically":5676,"ĠRadio":5677,"elly":5678,"FL":5679,"Ġalle":5680,"opher":5681,"heim":5682,"Ġ62":5683,"Ġ1974":5684,"ĠConn":5685,"Ġrob":5686,"Ġtransform":5687,"Ġrecognized":5688,"Ġvac":5689,"Ġvolume":5690,"burgh":5691,"iler":5692,"Ġscholars":5693,"Ġsites":5694,"Ġ63":5695,"ĠShak":5696,"ĠSerb":5697,"Ġreaction":5698,"ĠDemocratic":5699,"Ġgain":5700,"ĠChap":5701,"Ġprote":5702,"Ġconcer":5703,"ĠMiller":5704,"Ġparallel":5705,"Ġ1973":5706,"Ġteach":5707,"roll":5708,"essed":5709,"Ġhyp":5710,"Ġ77":5711,"ĠSummer":5712,"Ġshared":5713,"Ġ73":5714,"Ġmoder":5715,"Ġpublication":5716,"Ġdigital":5717,"Ġcart":5718,"Ġeconomy":5719,"Ġtemperature":5720,"ĠGrant":5721,"ĠMu":5722,"Ġsteel":5723,"ĠLab":5724,"Ġdeveloping":5725,"ĠHan":5726,"Ġedge":5727,"ĠKa":5728,"Ġintersection":5729,"box":5730,"standing":5731,"Ġcool":5732,"friend":5733,"ĠBarb":5734,"Ġ1976":5735,"Ġsymbol":5736,"ĠEven":5737,"ĠBank":5738,"Ġapproved":5739,"zen":5740,"ĠLieutenant":5741,"ĠFall":5742,"Ġsecondary":5743,"Ġrac":5744,"ĠSix":5745,"Ġchance":5746,"ali":5747,"ĠAv":5748,"Ġlosses":5749,"Ġcontest":5750,"ĠSteve":5751,"Ġhydro":5752,"ologist":5753,"Ġwitness":5754,"omew":5755,"ading":5756,"Ġprepared":5757,"Ġsubstant":5758,"Ġvon":5759,"Ġenl":5760,"Ġbelief":5761,"rence":5762,"Ġmyth":5763,"iful":5764,"itors":5765,"ĠConst":5766,"ĠSu":5767,"ographic":5768,"Ġsignificantly":5769,"Ã¡n":5770,"ĠNaz":5771,"Ġletters":5772,"ĠRome":5773,"ĠAlso":5774,"Ġbands":5775,"Ġsort":5776,"ĠHMS":5777,"Ġdomestic":5778,"Ġcard":5779,"onder":5780,"ĠDavis":5781,"ora":5782,"ĠUN":5783,"Ġsave":5784,"ĠBrian":5785,"ĠDaily":5786,"Ġ250":5787,"ĠWater":5788,"ĠMusl":5789,"ĠAddition":5790,"Ġinstruct":5791,"Ġfranchise":5792,"ryst":5793,"Ġknew":5794,"ĠAtt":5795,"asty":5796,"ĠSpecial":5797,"Ġunsuccess":5798,"Ġgoes":5799,"Ġheads":5800,"Ġsouthwest":5801,"Ġliterature":5802,"Ġroughly":5803,"break":5804,"eral":5805,"Ġactress":5806,"unte":5807,"aka":5808,"Ġtechnology":5809,"Ġsemi":5810,"ĠDown":5811,"achus":5812,"ĠGib":5813,"Ġdescend":5814,"Ġ67":5815,"ĠSyd":5816,"Ġadvent":5817,"ĠWalter":5818,"ĠProv":5819,"enc":5820,"Ġurban":5821,"ĠGer":5822,"range":5823,"Ġassault":5824,"Ġcab":5825,"Ġcore":5826,"theless":5827,"Ġpainting":5828,"Ġbrothers":5829,"Ġpitch":5830,"Ġanything":5831,"Ġcars":5832,"ĠBeyon":5833,"ĠTen":5834,"ĠLy":5835,"Ġadult":5836,"Ġresistance":5837,"Ġgameplay":5838,"Ġprojects":5839,"ati":5840,"ĠMas":5841,"Ġlb":5842,"oz":5843,"Ġexact":5844,"Ġsand":5845,"Ġneighbor":5846,"iminal":5847,"Ġstoryline":5848,"Ġbor":5849,"Ġemployed":5850,"Ġshape":5851,"ĠPoint":5852,"ĠPrinc":5853,"ĠSupreme":5854,"Ġrules":5855,"ropri":5856,"Ġreasons":5857,"amm":5858,"Ġdaily":5859,"Ġign":5860,"Ġtank":5861,"ĠMean":5862,"Ġagent":5863,"Ġinjured":5864,"ĠSand":5865,"ĠKen":5866,"ĠKentucky":5867,"omic":5868,"Ġshall":5869,"Ġwatched":5870,"ients":5871,"ĠIV":5872,"ĠInc":5873,"ĠLady":5874,"Ġpopularity":5875,"ĠGord":5876,"Ġcomposition":5877,"Ġ1946":5878,"onym":5879,"ĠNap":5880,"ĠCommand":5881,"Ġdeclined":5882,"Ġfit":5883,"Ġperhaps":5884,"Ġadding":5885,"ulpt":5886,"ĠBell":5887,"Ġisol":5888,"Ġrenamed":5889,"Ġopinion":5890,"Ġenjoyed":5891,"agement":5892,"Ġgetting":5893,"Ġcompris":5894,"Ġcalc":5895,"Ġ68":5896,"atre":5897,"Ġreputation":5898,"Ġ1981":5899,"Ġ96":5900,"Ġnor":5901,"Ġundert":5902,"Ġshaped":5903,"Ġconnected":5904,"inking":5905,"Ġ72":5906,"bound":5907,"oir":5908,"Ġrend":5909,"Ġlov":5910,"osl":5911,"Ġdrew":5912,"Ġestate":5913,"Ġdry":5914,"Ġ1917":5915,"Ġviews":5916,"Ġmuseum":5917,"Ġregarding":5918,"Ġconverted":5919,"Ġretire":5920,"ĠIndust":5921,"ĠColonel":5922,"Ġstages":5923,"ceived":5924,"ĠFair":5925,"Ġpoem":5926,"ĠStation":5927,"ĠOlympics":5928,"igg":5929,"ules":5930,"Ġagricult":5931,"ĠBeyoncÃ©":5932,"Ġsun":5933,"iform":5934,"Ġallows":5935,"vest":5936,"Ġnick":5937,"Ġdistingu":5938,"rett":5939,"ĠNorway":5940,"ĠâĪĴ":5941,"According":5942,"Ġbed":5943,"ato":5944,"Ġheaded":5945,"Ġalternative":5946,"ĠUpon":5947,"ĠOb":5948,"achusetts":5949,"ads":5950,"Ġ87":5951,"rets":5952,"athan":5953,"Ġdepth":5954,"Ġcited":5955,"Ġmissing":5956,"ko":5957,"ĠSpring":5958,"Ġincreasingly":5959,"ĠIndepend":5960,"Ġturning":5961,"Ġapproached":5962,"Ġstadium":5963,"gal":5964,"osis":5965,"ĠAirport":5966,"ĠMassachusetts":5967,"eper":5968,"Ġresponded":5969,"Ġplanning":5970,"ĠMain":5971,"ĠMos":5972,"ĠBase":5973,"Ġknowledge":5974,"Ġ160":5975,"ĠPhilipp":5976,"Ġeasily":5977,"Ġoverl":5978,"ilding":5979,"eman":5980,"hat":5981,"Ġexerc":5982,"Ġwealth":5983,"ĠKir":5984,"Ġescort":5985,"Ġ700":5986,"Ġconstitution":5987,"psons":5988,"Ġfashion":5989,"lan":5990,"Ġcells":5991,"ĠDream":5992,"Ġcollected":5993,"Ġ1948":5994,"Ġequal":5995,"ĠBern":5996,"Ġsucceeded":5997,"ĠWomen":5998,"ĠPlan":5999,"Ġrebu":6000,"unicip":6001,"Ġtrip":6002,"mod":6003,"Ġexistence":6004,"Ġsafety":6005,"ignment":6006,"Ġpul":6007,"Ġintroduction":6008,"ĠAbb":6009,"ĠSimpsons":6010,"Ġflu":6011,"Ġauth":6012,"ĠPrem":6013,"Ġoccas":6014,"wise":6015,"Ġtall":6016,"Ġlearned":6017,"Ġsustained":6018,"Ġoperating":6019,"Ġmodels":6020,"ĠOnly":6021,"Ġcolle":6022,"Ġcarrying":6023,"mitted":6024,"Ġpromotion":6025,"ĠRoss":6026,"Ġ69":6027,"uration":6028,"ĠBall":6029,"engers":6030,"Ġbaseball":6031,"Ġlimit":6032,"Ġexchange":6033,"Ġ1978":6034,"Ġyouth":6035,"Ġshowing":6036,"iger":6037,"Ġburied":6038,"onia":6039,"ĠWalk":6040,"come":6041,"ĠSus":6042,"Ġhumans":6043,"ĠImperial":6044,"Ġcredited":6045,"Ġseems":6046,"Ġdepend":6047,"leton":6048,"Ġ78":6049,"Ġ91":6050,"Ġimprove":6051,"state":6052,"Ġimpl":6053,"ĠGolden":6054,"oli":6055,"Ġfreeway":6056,"Ġarranged":6057,"Ġweakened":6058,"ĠImp":6059,"ĠHart":6060,"Ġjoint":6061,"ĠVietnam":6062,"Ġdesigns":6063,"Ġpaint":6064,"istan":6065,"Ġrhy":6066,"ĠSel":6067,"ĠRon":6068,"Ġproceed":6069,"Ġproducing":6070,"Ġathlet":6071,"ĠCape":6072,"Ġ1915":6073,"Ġsettlement":6074,"inary":6075,"eler":6076,"Ġvan":6077,"Ġlasted":6078,"ĠWhit":6079,"Ġearliest":6080,"ĠOttoman":6081,"acts":6082,"Ġflat":6083,"put":6084,"Ġnote":6085,"Ġdescription":6086,"ĠAmong":6087,"ĠAD":6088,"Ġacres":6089,"Ġretained":6090,"ĠSongs":6091,"Ġlandfall":6092,"Äģ":6093,"Ġbrand":6094,"Ġton":6095,"ĠSydney":6096,"ĠVi":6097,"Ġlaws":6098,"Ġ94":6099,"pet":6100,"ivalent":6101,"Ġappoint":6102,"ources":6103,"Ġgenre":6104,"ĠNaval":6105,"Ġsculpt":6106,"Ġconsc":6107,"Ġinstall":6108,"Ġreplace":6109,"ivered":6110,"ĠPict":6111,"Ġreserve":6112,"ĠPoland":6113,"reets":6114,"insula":6115,"Ġ1977":6116,"Ġprograms":6117,"Ġassistant":6118,"issance":6119,"ĠNick":6120,"ĠBal":6121,"Ġplayoff":6122,"bell":6123,"Ġcatch":6124,"rell":6125,"Ġstatement":6126,"Ġapplied":6127,"Ġvirt":6128,"Ġentrance":6129,"Ġviolence":6130,"eor":6131,"Ġcoastal":6132,"For":6133,"iege":6134,"Ġneut":6135,"Ġtrust":6136,"Ġscientific":6137,"Ġtick":6138,"Ġconsequ":6139,"ela":6140,"Ġhits":6141,"othes":6142,"avig":6143,"Ġsynt":6144,"ader":6145,"Ġ81":6146,"ĠArts":6147,"hi":6148,"math":6149,"tical":6150,"Ġexclus":6151,"Ġ1963":6152,"Ġbattery":6153,"Ġcandidate":6154,"time":6155,"Ġ98":6156,"ĠWho":6157,"oard":6158,"Ġitems":6159,"Ġuns":6160,"Ġtowns":6161,"ĠLet":6162,"Ġgradually":6163,"Ġindicated":6164,"izations":6165,"Ġpolitics":6166,"dd":6167,"Ġstopped":6168,"Ġdelivered":6169,"Ġsections":6170,"lee":6171,"Ġban":6172,"Ġdistribution":6173,"eke":6174,"Ġ1916":6175,"ĠMTV":6176,"Ġtact":6177,"Ġfilled":6178,"Ġindependence":6179,"ĠJes":6180,"Ġdetails":6181,"ĠBowl":6182,"ĠDue":6183,"eless":6184,"ĠStew":6185,"ĠMcG":6186,"ĠRoy":6187,"Ġselect":6188,"Å¡":6189,"rec":6190,"Ġstream":6191,"Ġcombination":6192,"Ġsupplies":6193,"mun":6194,"Ġcinem":6195,"He":6196,"Ġways":6197,"ushing":6198,"Ġemp":6199,"ĠConfeder":6200,"uro":6201,"ĠCur":6202,"Ġparties":6203,"Ġ71":6204,"Ġglass":6205,"Ġappeal":6206,"ĠRhodes":6207,"ĠMaryland":6208,"GN":6209,"Ġengines":6210,"Ġcamera":6211,"Ġprisoners":6212,"ender":6213,"AT":6214,"ÅĤ":6215,"ĠJay":6216,"Ġbask":6217,"ĠStadium":6218,"emies":6219,"ĠCra":6220,"Ġ1919":6221,"Ġregister":6222,"Ġcampus":6223,"Ġacts":6224,"Ġ1962":6225,"Ġextremely":6226,"Ġ89":6227,"Ġentitled":6228,"iversary":6229,"Ġmig":6230,"Ġsecure":6231,"ĠRid":6232,"Ġfinding":6233,"ropol":6234,"ĠOnce":6235,"ĠMoore":6236,"Ġinvestigation":6237,"Ġonline":6238,"Ġ82":6239,"Ġdecade":6240,"poration":6241,"Ġtal":6242,"ĠMeanwhile":6243,"inois":6244,"ĠEdu":6245,"Ġevening":6246,"iques":6247,"ez":6248,"ĠFire":6249,"ĠTheatre":6250,"Ġwinner":6251,"acter":6252,"Ġarc":6253,"Ġbought":6254,"ĠRem":6255,"Ġregiment":6256,"ĠReview":6257,"ĠAri":6258,"ĠPass":6259,"Ġ88":6260,"Ġthreatened":6261,"Ġadapted":6262,"Ġwars":6263,"Ġmessage":6264,"Ġsurvived":6265,"Ġsomew":6266,"ĠBand":6267,"Ġ1938":6268,"Ġruled":6269,"iller":6270,"Ġstudied":6271,"ador":6272,"Ġknots":6273,"ja":6274,"Ġroutes":6275,"Ġreligion":6276,"Ġconsum":6277,"Ġwrites":6278,"iat":6279,"arp":6280,"Ġproposal":6281,"ashed":6282,"Ġaddress":6283,"Ġdeaths":6284,"ĠAC":6285,"Ġdownload":6286,"Ġfear":6287,"met":6288,"Ġrelief":6289,"BS":6290,"Ġvoted":6291,"ĠBon":6292,"Ġreduce":6293,"Ġmales":6294,"ighters":6295,"ĠStaff":6296,"Ġspecifically":6297,"ieval":6298,"Ġcrown":6299,"Ġrevolution":6300,"Ġspons":6301,"bro":6302,"Ġphase":6303,"Ġkingdom":6304,"ĠMulder":6305,"bourne":6306,"BN":6307,"Ġfict":6308,"mann":6309,"ano":6310,"Ġduty":6311,"Ġec":6312,"Ġcontroversy":6313,"Ġportrayed":6314,"ctions":6315,"phoon":6316,"Ġrecalled":6317,"ĠRun":6318,"ĠGordon":6319,"ca":6320,"ĠJan":6321,"Ġemerg":6322,"Ġimplement":6323,"Ġsoul":6324,"ĠUnivers":6325,"ĠGreg":6326,"adow":6327,"apes":6328,"aug":6329,"ician":6330,"ervative":6331,"Ġcauses":6332,"Ġble":6333,"Ġeverything":6334,"ĠVar":6335,"Ġbottom":6336,"Ġsell":6337,"Ġet":6338,"Ġ130":6339,"Ġstret":6340,"Ġcapable":6341,"Ġbreeding":6342,"Ġago":6343,"chers":6344,"Ġreferences":6345,"Ġimportance":6346,"Ġconvin":6347,"ĠVill":6348,"Ġtanks":6349,"ĠLoc":6350,"ĠMemorial":6351,"Ġteacher":6352,"Ġ1956":6353,"Ġ175":6354,"ĠAge":6355,"Ġoffers":6356,"ridges":6357,"Ġentry":6358,"Ġmeters":6359,"Ġarrested":6360,"senal":6361,"Ġopera":6362,"entially":6363,"Ġclimb":6364,"Ġsufficient":6365,"Ġadmitted":6366,"Ġinternal":6367,"Ġowner":6368,"ĠWell":6369,"oys":6370,"Ġnomination":6371,"Ġcrossed":6372,"ĠKong":6373,"Ġconcerns":6374,"bar":6375,"Ġ79":6376,"Ġ1936":6377,"Ġproducts":6378,"Ġcorner":6379,"It":6380,"Ġinstalled":6381,"Ġcopy":6382,"Ġoverse":6383,"ĠCirc":6384,"hr":6385,"wich":6386,"ĠSingles":6387,"Ġmort":6388,"Ġequipped":6389,"Ġpreced":6390,"aki":6391,"Ġinvited":6392,"Ġautom":6393,"Ġconqu":6394,"ructure":6395,"ĠConstant":6396,"Ġtell":6397,"Ġunl":6398,"Ġshel":6399,"Ġstarts":6400,"ĠBa":6401,"ĠProf":6402,"ĠBir":6403,"ĠKim":6404,"Ġinterested":6405,"ansas":6406,"Ġcrime":6407,"Ġones":6408,"ranean":6409,"Ġprincipal":6410,"Ġalt":6411,"Ġstock":6412,"Ġrecommended":6413,"Ġfly":6414,"Ġacid":6415,"Ġremainder":6416,"Ġretreat":6417,"Ġactual":6418,"Ġshut":6419,"ĠBeach":6420,"ĠPlot":6421,"Ġsnow":6422,"Ġjourney":6423,"Ġmedal":6424,"ta":6425,"espread":6426,"Ġvent":6427,"ĠUTC":6428,"Ġupgrad":6429,"ĠJustice":6430,"Ġdoor":6431,"ĠAbout":6432,"Ġsolid":6433,"Ġapart":6434,"Ġcharged":6435,"ilation":6436,"Ġfunds":6437,"Ġobjects":6438,"Ġconsisting":6439,"ĠInstead":6440,"ordan":6441,"Ġprice":6442,"Ġmilit":6443,"ĠYour":6444,"ĠAnth":6445,"Ġcomposer":6446,"ĠMoon":6447,"osaurus":6448,"30":6449,"ĠCop":6450,"Ġpromote":6451,"Ġfemales":6452,"Ġdates":6453,"Ġgall":6454,"aked":6455,"vis":6456,"ĠRa":6457,"ĠGram":6458,"Ġ84":6459,"Ġpage":6460,"Ġconsiderable":6461,"Ġ1961":6462,"ĠVII":6463,"iy":6464,"ĠForest":6465,"Ġpoly":6466,"hus":6467,"erted":6468,"ĠColl":6469,"Ġgrounds":6470,"rete":6471,"ĠNic":6472,"Ġ1953":6473,"Ġduties":6474,"Ġextension":6475,"Ġtypical":6476,"ĠOk":6477,"BI":6478,"Ġcorrect":6479,"Ġblow":6480,"ĠJane":6481,"cks":6482,"ĠHere":6483,"Ġsomeone":6484,"Ġrural":6485,"mb":6486,"Ġeighth":6487,"ĠDougl":6488,"Ġcong":6489,"Ġevolution":6490,"ĠNether":6491,"ĠNBA":6492,"Ġpenal":6493,"add":6494,"ĠId":6495,"Ġspin":6496,"ĠPo":6497,"Ġdriving":6498,"Ġhotel":6499,"vements":6500,"ĠUr":6501,"ĠBos":6502,"Ġdecades":6503,"king":6504,"osite":6505,"Ġsole":6506,"ĠIndones":6507,"Ġidentity":6508,"ĠFound":6509,"Ġimages":6510,"ĠVideo":6511,"ĠDeath":6512,"ĠAst":6513,"Ġlane":6514,"Ġreading":6515,"Ġzone":6516,"elson":6517,"Ġremix":6518,"ĠMcK":6519,"Ġoccurs":6520,"hetic":6521,"Ġpermanent":6522,"Ġsubs":6523,"ĠAdams":6524,"Ġbrigade":6525,"Ġchallenge":6526,"Ġfrag":6527,"Ġmanner":6528,"ĠAlf":6529,"Ġtow":6530,"Ġskin":6531,"Ġaer":6532,"Ġvolcan":6533,"Ġaspects":6534,"ĠSunday":6535,"Ġdated":6536,"ĠTransport":6537,"19":6538,"Ġ1947":6539,"ĠTony":6540,"Ġham":6541,"ĠEngine":6542,"ĠNorwe":6543,"ubb":6544,"ĠMaria":6545,"Ġcolour":6546,"regon":6547,"Ġnoting":6548,"Ġvir":6549,"Ġrestaur":6550,"after":6551,"nic":6552,"Ġposted":6553,"Ġslowly":6554,"ĠHamilton":6555,"iley":6556,"ione":6557,"aware":6558,"ensus":6559,"ĠDirector":6560,"Ġsupporters":6561,"ĠProject":6562,"cknow":6563,"Ġclean":6564,"Ġ1958":6565,"Ġ1910":6566,"Ġinvolving":6567,"Ġdescribing":6568,"Ġspeak":6569,"Ġ86":6570,"Ġbra":6571,"ivals":6572,"ĠPit":6573,"Ġ110":6574,"Ġvessels":6575,"Ġenemies":6576,"veland":6577,"Ġentering":6578,"ĠIndiana":6579,"ĠProg":6580,"ĠAssembly":6581,"Ġdepartment":6582,"ĠPortug":6583,"ĠMilitary":6584,"Ġdress":6585,"ĠCart":6586,"Ġequivalent":6587,"ĠKennedy":6588,"Ġ1957":6589,"Ġobtained":6590,"Ġclasses":6591,"ĠSimon":6592,"ĠPower":6593,"ĠAlan":6594,"Ġ1937":6595,"Ġdebate":6596,"ĠTurk":6597,"ooth":6598,"Ġdin":6599,"Ġpatrol":6600,"ĠIGN":6601,"Ġsettled":6602,"Ġaccur":6603,"ĠHou":6604,"Ġbasic":6605,"Ġpurchase":6606,"Ġsongwrit":6607,"ĠMagazine":6608,"ĠFA":6609,"Ġdecline":6610,"Ġparliament":6611,"Ġarmor":6612,"Ġtele":6613,"risis":6614,"erto":6615,"ĠAdam":6616,"agues":6617,"Ġoldest":6618,"Ġwidespread":6619,"Ġfolk":6620,"Ġincome":6621,"Ġpup":6622,"Ġconcerned":6623,"ĠMountain":6624,"fl":6625,"Ġconnection":6626,"Ġdeparture":6627,"Ġnest":6628,"ĠConstitution":6629,"Ġfaith":6630,"Ġattached":6631,"Ġformal":6632,"Ġmemorial":6633,"Ġrecognition":6634,"cation":6635,"hered":6636,"rim":6637,"Ġaccused":6638,"heastern":6639,"Ġdecor":6640,"ĠScully":6641,"ophy":6642,"Ġinteg":6643,"ibb":6644,"Ġdeleg":6645,"Ġsequel":6646,"Ġouter":6647,"ĠCult":6648,"Ġcertified":6649,"RA":6650,"rates":6651,"ĠHoward":6652,"ĠRose":6653,"wan":6654,"Ġha":6655,"ĠWeekly":6656,"Ġderived":6657,"Ġmode":6658,"Ġcommitted":6659,"ĠScience":6660,"Ġacknow":6661,"ĠIra":6662,"icit":6663,"aret":6664,"Ġassumed":6665,"ĠHitler":6666,"Ġdisturb":6667,"Ġsegment":6668,"Ġswim":6669,"Ġwearing":6670,"Ġwed":6671,"ĠOregon":6672,"organ":6673,"ĠGun":6674,"ĠKat":6675,"western":6676,"Ġhip":6677,"ĠIllinois":6678,"ĠâĢĿ":6679,"Ġsurvey":6680,"Ġtorn":6681,"ĠPear":6682,"Ġacclaim":6683,"aver":6684,"ĠArgent":6685,"ekend":6686,"Ġhosted":6687,"Ġtemple":6688,"iot":6689,"Ġcharges":6690,"Ġfoss":6691,"Ġpopulations":6692,"Ġreturns":6693,"Ġvalley":6694,"Ġdenied":6695,"Ġterminus":6696,"ĠTar":6697,"Ġ1959":6698,"Ġsessions":6699,"Ġfine":6700,"Ġhang":6701,"ĠBrist":6702,"agonist":6703,"Ġchampion":6704,"iterranean":6705,"ĠBry":6706,"eing":6707,"Ġregional":6708,"ĠInt":6709,"ĠMarc":6710,"Ġliterary":6711,"ĠBeatles":6712,"Ġthousands":6713,"Ġcanc":6714,"ĠLeon":6715,"Ġtransition":6716,"iva":6717,"ĠISBN":6718,"ĠSpace":6719,"Ġcircum":6720,"Ġsupposed":6721,"ĠMediterranean":6722,"ĠEric":6723,"Ġwarm":6724,"Ġdemand":6725,"Ġdowntown":6726,"ĠScient":6727,"ĠRolling":6728,"ĠDrag":6729,"ĠAk":6730,"Ġwickets":6731,"Ġans":6732,"Ġintelligence":6733,"Ġshots":6734,"ĠWWE":6735,"Ġcommit":6736,"Ġ1955":6737,"Ġ1954":6738,"ĠStand":6739,"ĠGill":6740,"hedral":6741,"Ġpassengers":6742,"Ġsailed":6743,"udden":6744,"Ġstrongly":6745,"heme":6746,"emed":6747,"borne":6748,"Ġcirculation":6749,"ĠNorwegian":6750,"ĠKey":6751,"Ġpossibility":6752,"ĠDouglas":6753,"achel":6754,"Ġgeneration":6755,"ĠResearch":6756,"IA":6757,"Ġfictional":6758,"ĠRyan":6759,"ĠHug":6760,"Ġanimated":6761,"Ġfreedom":6762,"Ġhope":6763,"ĠPier":6764,"CA":6765,"ĠSav":6766,"ĠCleveland":6767,"Ġthirty":6768,"ĠLenn":6769,"ĠStanley":6770,"ĠTrack":6771,"Ġhill":6772,"rage":6773,"Ġrich":6774,"ito":6775,"Ġcloud":6776,"ĠMedia":6777,"ĠJordan":6778,"omp":6779,"ami":6780,"Ġreplacement":6781,"Ġbehavior":6782,"Ġminister":6783,"Ġassistance":6784,"lig":6785,"Ġcommanded":6786,"ĠChannel":6787,"Ġmissions":6788,"Ġbegun":6789,"ĠTreat":6790,"ĠThird":6791,"Ġcrash":6792,"Ġcriminal":6793,"Ġfruit":6794,"don":6795,"Ġmoves":6796,"Ġdestruction":6797,"atinum":6798,"mes":6799,"Ġmissed":6800,"orced":6801,"ĠÃĹ":6802,"oral":6803,"char":6804,"ĠInit":6805,"ĠFreder":6806,"elsh":6807,"Ġexception":6808,"ĠFeder":6809,"upt":6810,"Ġcosts":6811,"ĠAz":6812,"Ġhighlight":6813,"Ġbringing":6814,"Ġtied":6815,"ĠGen":6816,"Ġvolunte":6817,"ĠKorea":6818,"Ġalleged":6819,"Ġintention":6820,"Ġfinishing":6821,"Ġfeeling":6822,"ĠFederal":6823,"isms":6824,"Ġunusual":6825,"Ġspeaking":6826,"Ġdemol":6827,"ĠCritical":6828,"onto":6829,"Ġrecovered":6830,"ĠMexican":6831,"Ġintercept":6832,"Ġincorporated":6833,"lets":6834,"Ġstayed":6835,"Ġshop":6836,"Ġproperties":6837,"har":6838,"ĠFame":6839,"ĠAndy":6840,"Ġattributed":6841,"Ġopposite":6842,"Ġsons":6843,"ĠTenn":6844,"Ġflo":6845,"Ġserves":6846,"Ġbreaking":6847,"Ġemerged":6848,"ĠColor":6849,"enses":6850,"ĠPhilip":6851,"ĠBristol":6852,"Ġdriven":6853,"aza":6854,"Ġstrateg":6855,"Ġatmosphere":6856,"Ġdipl":6857,"ĠHo":6858,"Ġtheatre":6859,"Ġchorus":6860,"Ġ1952":6861,"ĠBetween":6862,"rating":6863,"othing":6864,"Ġoccasionally":6865,"ĠPur":6866,"olec":6867,"Ġclassic":6868,"Ġready":6869,"riers":6870,"Ġspok":6871,"umin":6872,"ĠEs":6873,"Ġregularly":6874,"aire":6875,"Ġcourts":6876,"Ġestablishment":6877,"Ġeffectively":6878,"ĠLow":6879,"Ġcavalry":6880,"oyd":6881,"ogen":6882,"Ġmethods":6883,"thm":6884,"Ġdivers":6885,"ĠFamily":6886,"Ġvary":6887,"Ġprey":6888,"ĠâĢľ":6889,"Ġsounds":6890,"Ġcompletion":6891,"ece":6892,"Ġsuperv":6893,"Ġresponsibility":6894,"Ġdream":6895,"Ġshore":6896,"oslav":6897,"Sp":6898,"ĠBol":6899,"Ġ92":6900,"Ġ1933":6901,"Ġmaterials":6902,"Ġstrengthen":6903,"ĠDisc":6904,"Ġ93":6905,"ĠHawai":6906,"ĠBush":6907,"ĠRain":6908,"uty":6909,"ĠRele":6910,"Ġprovince":6911,"Ġsurviving":6912,"Ġdissip":6913,"Ġattracted":6914,"Ġ176":6915,"Ġfields":6916,"ĠBruce":6917,"wen":6918,"Ġheat":6919,"Ġwarning":6920,"ban":6921,"ĠDer":6922,"Ġquant":6923,"ici":6924,"ĠCE":6925,"Ġaccommod":6926,"Ġentertain":6927,"ĠPhill":6928,"Ġmicro":6929,"ĠSab":6930,"sole":6931,"Ġdivisions":6932,"Ġpersu":6933,"Be":6934,"ĠBah":6935,"Ġglobal":6936,"ĠRaj":6937,"rane":6938,"ĠKevin":6939,"Ġclassified":6940,"Ġtechnical":6941,"Ġkid":6942,"Ġinterpret":6943,"icks":6944,"Ġdifferences":6945,"vens":6946,"Ġbrain":6947,"reck":6948,"rum":6949,"ĠMorgan":6950,"Ġpassage":6951,"Ġcruiser":6952,"Ġnone":6953,"abled":6954,"ipe":6955,"Ġaboard":6956,"emeter":6957,"Ġ1935":6958,"ĠNar":6959,"Ġsam":6960,"weight":6961,"Ġclubs":6962,"night":6963,"Ġneither":6964,"Ġassociation":6965,"Ġstood":6966,"ĠWeb":6967,"ĠUSA":6968,"Ġratings":6969,"nce":6970,"Ġmusicians":6971,"ĠNorman":6972,"Ġeleven":6973,"Ġrooms":6974,"ĠSky":6975,"ĠCab":6976,"ĠLanc":6977,"Ġreinforce":6978,"idden":6979,"ĠCas":6980,"ĠLisa":6981,"Ġhal":6982,"agle":6983,"Ġshif":6984,"Ġ1951":6985,"Ġmedic":6986,"Ġseparated":6987,"ĠSweden":6988,"omot":6989,"ĠNow":6990,"Ġoutbreak":6991,"Ġ1949":6992,"Ġdesire":6993,"Ġancest":6994,"ĠTemple":6995,"Ġsqu":6996,"Ġclimate":6997,"ĠRoger":6998,"Ã³n":6999,"ĠNations":7000,"Ġvotes":7001,"ĠToday":7002,"nings":7003,"inton":7004,"teenth":7005,"Ġclassification":7006,"Ġbattleships":7007,"Ġseemed":7008,"Ġpredecess":7009,"Ġvehicle":7010,"ĠFive":7011,"ĠMaster":7012,"ĠRow":7013,"Ġrose":7014,"Ġchemical":7015,"Ġpicture":7016,"Ġreality":7017,"ĠMorris":7018,"ji":7019,"ĠWelsh":7020,"Ġment":7021,"Ġmovements":7022,"Ġmemory":7023,"ĠBudd":7024,"ĠFinn":7025,"Ġrequested":7026,"Ġhoped":7027,"ĠArsenal":7028,"ĠTelevision":7029,"Ġille":7030,"Ġmap":7031,"Ġbasketball":7032,"ewhere":7033,"Ġraise":7034,"ĠByzantine":7035,"ĠEver":7036,"ogy":7037,"Ġmo":7038,"arsh":7039,"Ġhistorians":7040,"Ġdifficulty":7041,"abil":7042,"inder":7043,"Ġrestored":7044,"burn":7045,"ĠNetherlands":7046,"ige":7047,"ĠHell":7048,"Ġexpect":7049,"Ġprogramme":7050,"ĠRobinson":7051,"Ġcommunities":7052,"Ġvide":7053,"Ġca":7054,"Ġraid":7055,"Ġremember":7056,"ĠConc":7057,"ĠPremier":7058,"Ġteen":7059,"Ġpremiere":7060,"ĠWhe":7061,"Ġfal":7062,"Ġdelayed":7063,"Sh":7064,"ĠToronto":7065,"Ġpure":7066,"Ġanniversary":7067,"Ġgal":7068,"Ġinspiration":7069,"Ġdiscovery":7070,"Ġrelative":7071,"Ġgreatly":7072,"Ġfer":7073,"Ġflank":7074,"Ġinjuries":7075,"ĠIraq":7076,"ĠJews":7077,"ĠNelson":7078,"Ġotherwise":7079,"ĠFord":7080,"ĠAnton":7081,"ĠNich":7082,"Ġsatisf":7083,"ĠChron":7084,"Ġaccounts":7085,"Ġfunding":7086,"Ġpraise":7087,"ĠIron":7088,"Ġ1900":7089,"Ġsurrounded":7090,"hire":7091,"ĠFrancis":7092,"ĠSax":7093,"ĠDog":7094,"Ġpenalty":7095,"Ġspoke":7096,"Ġdepict":7097,"ilers":7098,"Ġstrate":7099,"Ġneeds":7100,"Ġclaiming":7101,"Ġrecru":7102,"ĠKr":7103,"Ġpartner":7104,"Ġmassive":7105,"ĠBelg":7106,"Ġdens":7107,"Ġbatting":7108,"iate":7109,"ĠBang":7110,"Ġtries":7111,"Ġsuit":7112,"ĠMarine":7113,"Ġcrop":7114,"Ġdie":7115,"Ġcrosses":7116,"Ġweapon":7117,"anth":7118,"Ġassemb":7119,"Ġphotograph":7120,"ĠPatrick":7121,"ĠJournal":7122,"Ġforming":7123,"Ġstrategy":7124,"Ġwrong":7125,"ĠDE":7126,"Ġastron":7127,"Ġlat":7128,"real":7129,"ĠTechn":7130,"Ġdocumentary":7131,"ĠAdditionally":7132,"ĠPA":7133,"ĠPow":7134,"Ġcra":7135,"ĠSports":7136,"Ġfled":7137,"Ġlegend":7138,"Ġinvolvement":7139,"ĠMit":7140,"Ġaccompl":7141,"aired":7142,"gets":7143,"ĠGh":7144,"Ġconsp":7145,"Ġstands":7146,"Ġarchitecture":7147,"Ġworst":7148,"wing":7149,"onds":7150,"ĠEle":7151,"ĠSn":7152,"uther":7153,"uble":7154,"Ġtemporary":7155,"Ġash":7156,"ĠDig":7157,"Ġremn":7158,"ĠAllen":7159,"Ġbombard":7160,"Ġdismissed":7161,"Ġchairman":7162,"Ġplane":7163,"Ġenf":7164,"Ġdetermine":7165,"Ġgirls":7166,"Ġsale":7167,"aya":7168,"Ġhear":7169,"ĠAnne":7170,"ĠRecording":7171,"ĠDean":7172,"Ġinner":7173,"ĠMarg":7174,"Ġweekend":7175,"going":7176,"Ġcategory":7177,"ĠArmen":7178,"Ġadaptation":7179,"ĠJacob":7180,"formula":7181,"Ġconvinced":7182,"Ġensure":7183,"usic":7184,"ĠOak":7185,"Ġreserv":7186,"Ġresources":7187,"Ġcul":7188,"Ġsight":7189,"ĠOpen":7190,"Ġinterests":7191,"Ġ06":7192,"PA":7193,"ĠDor":7194,"ĠCentre":7195,"Ġsomewhat":7196,"ĠProfess":7197,"Ġlibrary":7198,"ĠDomin":7199,"ĠCroatian":7200,"ĠNFL":7201,"Ġscheme":7202,"Ġimmediate":7203,"Ġcolonial":7204,"ĠBishop":7205,"Ġmedieval":7206,"ĠHeart":7207,"body":7208,"Ġstreets":7209,"ĠDesign":7210,"agre":7211,"Ġray":7212,"Ġpresidential":7213,"Ġabsor":7214,"itzer":7215,"Ġcarbon":7216,"po":7217,"ĠArn":7218,"Ġstarred":7219,"Ġfalling":7220,"ĠTrib":7221,"ĠWright":7222,"Ġacademic":7223,"ĠDa":7224,"ĠGlob":7225,"Ġclassical":7226,"Ġic":7227,"Ġraces":7228,"Ġfighter":7229,"aph":7230,"ĠIslam":7231,"Ġtechniques":7232,"ester":7233,"ĠHoly":7234,"Ġsurviv":7235,"Ġappropri":7236,"Ġsed":7237,"Ġninth":7238,"Ġthrone":7239,"Ġori":7240,"Ġmeets":7241,"ĠAgain":7242,"orney":7243,"Ġeggs":7244,"ĠPuerto":7245,"Ġconvent":7246,"This":7247,"icide":7248,"oster":7249,"Ġadults":7250,"wealth":7251,"Ġbright":7252,"Ã±":7253,"Ġloyal":7254,"ĠNC":7255,"Ġcommemor":7256,"Ġpassenger":7257,"Ġfitted":7258,"rine":7259,"Ġlake":7260,"ĠStra":7261,"Ġsubmarine":7262,"ĠNetwork":7263,"ĠWinter":7264,"Ġreviewer":7265,"bec":7266,"ĠHop":7267,"ĠJam":7268,"ĠBrother":7269,"Ġsuperior":7270,"ĠMatthew":7271,"Ġpremiered":7272,"Ġabsence":7273,"Ġinterior":7274,"Ġseeing":7275,"Ġrenew":7276,"Ġfavorite":7277,"Ġalien":7278,"osure":7279,"ĠHungarian":7280,"ivan":7281,"Ġengineer":7282,"á»":7283,"ĠRang":7284,"Ġattacking":7285,"ĠCarter":7286,"Ġelse":7287,"ĠLast":7288,"ĠRussell":7289,"ĠMars":7290,"Ġairport":7291,"Ġdeemed":7292,"Ġ1913":7293,"Ġdub":7294,"Ġvisible":7295,"ronze":7296,"Ġsynthes":7297,"Ġdating":7298,"Ġpartn":7299,"ĠShortly":7300,"Ġappearing":7301,"oen":7302,"ĠHend":7303,"Ġconclusion":7304,"acent":7305,"Ġconvection":7306,"using":7307,"ĠFront":7308,"Ġleads":7309,"Ġlanded":7310,"Ġafterwards":7311,"Ġcharacteristics":7312,"Ġelections":7313,"Ġromantic":7314,"Ġ1926":7315,"Ġ1927":7316,"Ġrum":7317,"Ġoperate":7318,"Ġfacility":7319,"ĠNiel":7320,"Ġcolony":7321,"ĠGard":7322,"Ġencouraged":7323,"book":7324,"Ġmunicip":7325,"ĠDick":7326,"ĠAI":7327,"ĠLabor":7328,"ĠTa":7329,"chang":7330,"Ġbuy":7331,"Ġretirement":7332,"da":7333,"Ġlies":7334,"Ġeveryone":7335,"Ġtemperatures":7336,"ĠPak":7337,"Ġsuffering":7338,"Ġcredit":7339,"Ġdoct":7340,"ĠLibrary":7341,"Ġmodified":7342,"elle":7343,"Ġcontroversial":7344,"aria":7345,"Ġlegislation":7346,"oming":7347,"ĠUlt":7348,"Ġ1921":7349,"Ġchalleng":7350,"ĠBou":7351,"Ġpainted":7352,"Ġholds":7353,"ĠNob":7354,"Ġsan":7355,"Ġ1934":7356,"ossible":7357,"Ġgone":7358,"urches":7359,"Ġattempting":7360,"ĠKelly":7361,"Ġbelieves":7362,"Ġwings":7363,"roit":7364,"ĠSimilar":7365,"ĠâĤ":7366,"Ġdistributed":7367,"li":7368,"Ġcode":7369,"ixon":7370,"Ġrescue":7371,"Ġdominated":7372,"ĠTok":7373,"aws":7374,"Ġsecured":7375,"Ġjudge":7376,"ĠWy":7377,"uster":7378,"Ġauthors":7379,"Ġ08":7380,"Ġcontinuing":7381,"tic":7382,"Ġ900":7383,"Ġdepicted":7384,"Ġlooked":7385,"ĠThompson":7386,"ĠBerlin":7387,"Despite":7388,"asure":7389,"Ġstandards":7390,"pon":7391,"Ġbattleship":7392,"apse":7393,"Ġanyone":7394,"ĠCommonwealth":7395,"Ġarchae":7396,"ania":7397,"Ġcancer":7398,"Ġimmig":7399,"Ġmonarch":7400,"Ġgrass":7401,"Ġpound":7402,"ĠPalace":7403,"Ġhabitat":7404,"Ġx":7405,"ĠEst":7406,"Ġlongest":7407,"Ġrailroad":7408,"ĠDra":7409,"ĠHarris":7410,"coming":7411,"scape":7412,"ĠFree":7413,"encies":7414,"lyn":7415,"otes":7416,"ĠGri":7417,"Ġ83":7418,"Ġwel":7419,"Ġunsuccessful":7420,"Ġobtain":7421,"Ġ1912":7422,"Ġgraphics":7423,"ĠDNA":7424,"Ġbiggest":7425,"ĠRAAF":7426,"eline":7427,"Ġunion":7428,"Ġtrained":7429,"ĠCooper":7430,"Ġneck":7431,"ĠEducation":7432,"ache":7433,"ĠStory":7434,"Ġarrangement":7435,"Ġwins":7436,"Ġjump":7437,"inals":7438,"ternal":7439,"ugoslav":7440,"ĠUSS":7441,"Ġsudden":7442,"ĠIndians":7443,"ĠEvery":7444,"ultane":7445,"ĠHospital":7446,"Ġcarrier":7447,"Ġ1932":7448,"Ġacknowled":7449,"aska":7450,"opes":7451,"ĠTs":7452,"owa":7453,"ĠRick":7454,"Ġnickn":7455,"ĠHouston":7456,"eenth":7457,"alo":7458,"ĠYan":7459,"Ġbelt":7460,"Ġinformed":7461,"Ġmeasures":7462,"ĠKer":7463,"ĠAdvent":7464,"emetery":7465,"Ġreleases":7466,"Ġrepresenting":7467,"ĠCorporation":7468,"Ġachieve":7469,"ĠCommander":7470,"Ġgarrison":7471,"Ġdeployed":7472,"ĠSanta":7473,"ching":7474,"ĠPolice":7475,"Ġalleg":7476,"Ġsees":7477,"ĠParker":7478,"una":7479,"Ġ09":7480,"Ġcloser":7481,"Ġformerly":7482,"Ġconvention":7483,"Ġgenerated":7484,"Ġhistoric":7485,"ĠBatman":7486,"ĠSpe":7487,"Ġbab":7488,"fare":7489,"ture":7490,"Ġgrade":7491,"ĠSwedish":7492,"Ġemergency":7493,"Ġstyles":7494,"ĠUt":7495,"tenance":7496,"10":7497,"lie":7498,"Ġster":7499,"rot":7500,"Ġbats":7501,"olph":7502,"Ġveter":7503,"Ġgets":7504,"Ġsiege":7505,"Ġtrials":7506,"Ġquestions":7507,"Ġmoderate":7508,"Ġfestival":7509,"ĠSimpson":7510,"Ġinfluential":7511,"Ġmolec":7512,"Ġcycle":7513,"agu":7514,"ĠEy":7515,"hemat":7516,"uts":7517,"ĠGet":7518,"Ġassass":7519,"Ġemotional":7520,"Ġru":7521,"Ġowners":7522,"ĠYugoslav":7523,"ĠBrand":7524,"otype":7525,"Ġnovels":7526,"ĠNBC":7527,"Ġsuccessor":7528,"Ġinfluences":7529,"ĠThus":7530,"Ġnarrative":7531,"ĠÅ":7532,"ĠCook":7533,"Ġstead":7534,"Ġexcess":7535,"Ġdefended":7536,"mate":7537,"Ġthin":7538,"Ġjournalist":7539,"ĠBi":7540,"Ġ1929":7541,"ĠDetroit":7542,"aints":7543,"ĠAcc":7544,"Ġchildhood":7545,"Ġexperiences":7546,"Ġapparently":7547,"Ġdiscussed":7548,"Ġconstant":7549,"Ġeat":7550,"Ġlegs":7551,"Ġveget":7552,"Ġvictims":7553,"ĠHin":7554,"Ġpregn":7555,"Ġalco":7556,"arked":7557,"Ġ1911":7558,"Ġtreated":7559,"fire":7560,"Ġconcur":7561,"Ġenvironmental":7562,"ES":7563,"Ġridge":7564,"Ġinstruments":7565,"Ġdiplom":7566,"Ġgiant":7567,"ĠRAF":7568,"ĠMurray":7569,"ĠLyn":7570,"Ġexecuted":7571,"yard":7572,"Ġdetail":7573,"imore":7574,"Ġ140":7575,"noon":7576,"ĠTal":7577,"Ġenters":7578,"Ġdepos":7579,"Ġoffices":7580,"ĠOt":7581,"usted":7582,"Ġwooden":7583,"ĠSilver":7584,"anta":7585,"Ġcoins":7586,"ĠBure":7587,"Ġmine":7588,"achment":7589,"obi":7590,"anny":7591,"ĠLi":7592,"DS":7593,"rams":7594,"Ġ1931":7595,"Ġfactors":7596,"Ġ1922":7597,"Ġbear":7598,"iens":7599,"ĠSocial":7600,"Ġhunting":7601,"ĠWarner":7602,"ĠRoberts":7603,"ĠAsian":7604,"Ġchannel":7605,"aste":7606,"Ġhundreds":7607,"rees":7608,"ĠPC":7609,"ĠMerc":7610,"Ġride":7611,"ĠMort":7612,"Ġresigned":7613,"ĠObs":7614,"iliar":7615,"Ġuniform":7616,"ĠCroatia":7617,"Ġocean":7618,"ĠCru":7619,"Ġnavig":7620,"Ġgay":7621,"Ġskills":7622,"itter":7623,"Ġreveals":7624,"From":7625,"Ġpointed":7626,"One":7627,"Ġspend":7628,"text":7629,"Ġclim":7630,"Ġchapter":7631,"ĠXbox":7632,"Ġwatching":7633,"stances":7634,"Ġbon":7635,"Ġpushed":7636,"ĠConstruction":7637,"orous":7638,"Ġprevented":7639,"ĠMelbourne":7640,"ĠCategory":7641,"Ġ05":7642,"Ġpreferred":7643,"ĠGaga":7644,"Ġdrums":7645,"ois":7646,"Ġhappened":7647,"ĠVice":7648,"Ġpull":7649,"Ġflew":7650,"ĠKnight":7651,"oto":7652,"Ġfootage":7653,"Ġfacing":7654,"icians":7655,"ĠFI":7656,"Ġopponents":7657,"Ġformat":7658,"Ġreportedly":7659,"ĠJesus":7660,"Ġintent":7661,"Ġformally":7662,"Ġdifference":7663,"ĠSpears":7664,"Ġlocomot":7665,"Ġcheck":7666,"Ġlanguages":7667,"Ġthereafter":7668,"Ġaccomp":7669,"ĠNielsen":7670,"Ġthousand":7671,"Ġintense":7672,"Ġresign":7673,"Ġhanded":7674,"Ġchain":7675,"Ġrelationships":7676,"ĠMuslim":7677,"tty":7678,"ĠExpress":7679,"Ġfiring":7680,"yo":7681,"ogether":7682,"Ġinhabit":7683,"Ġnotably":7684,"Ġvisitors":7685,"Ġanimation":7686,"Ġdevice":7687,"Ġemployees":7688,"ĠAnthony":7689,"onies":7690,"ĠMun":7691,"Ġvision":7692,"Ġexisted":7693,"Ġsurrender":7694,"ĠTower":7695,"Ġgather":7696,"ĠClinton":7697,"ĠModern":7698,"Ġbes":7699,"ĠTurkish":7700,"ĠSomers":7701,"idi":7702,"Ġlinked":7703,"Ġaccompany":7704,"olis":7705,"Ġexposed":7706,"ĠEvans":7707,"ologists":7708,"mad":7709,"ĠChamber":7710,"Ġhearing":7711,"Ġ170":7712,"spec":7713,"ĠPrincess":7714,"Ġdeparted":7715,"ĠColorado":7716,"ĠJason":7717,"Ġparticipate":7718,"Ġpoetry":7719,"Ġfil":7720,"Ġdialogue":7721,"ĠQueens":7722,"Ġconvoy":7723,"stic":7724,"hatt":7725,"ĠAlbums":7726,"Ġextent":7727,"ĠStewart":7728,"jo":7729,"Ġaudio":7730,"Ġlearning":7731,"Ġdetailed":7732,"ican":7733,"Ġannounce":7734,"ĠGreece":7735,"Ġinstance":7736,"Ġrebell":7737,"Ġsubstantial":7738,"ĠOd":7739,"ullivan":7740,"Ġbeach":7741,"ĠLate":7742,"Ġresidential":7743,"Ġimpressed":7744,"lock":7745,"Ġcruisers":7746,"ĠBulgar":7747,"orage":7748,"prise":7749,"Ġuniverse":7750,"ropolitan":7751,"unes":7752,"endment":7753,"ĠGilbert":7754,"ĠBaltimore":7755,"Ġteeth":7756,"ĠAustria":7757,"Ġvul":7758,"Ġafternoon":7759,"Ġutil":7760,"ĠPope":7761,"Ġavo":7762,"MA":7763,"ĠSamuel":7764,"igen":7765,"Ġmart":7766,"Ġperiods":7767,"Ġske":7768,"orial":7769,"Ġhuge":7770,"Ġstem":7771,"ĠAround":7772,"ĠBed":7773,"Ġpublisher":7774,"Ġeasy":7775,"Ġplate":7776,"Ġenthus":7777,"ĠFoundation":7778,"ĠRaw":7779,"Ġhat":7780,"ĠLane":7781,"Ġimprison":7782,"Ġtempor":7783,"Ġtaught":7784,"Ġterritories":7785,"Ġdriver":7786,"Ġtesting":7787,"ribed":7788,"Ġreviewers":7789,"umph":7790,"viation":7791,"opter":7792,"ĠOrgan":7793,"ĠAuthor":7794,"Ġvideos":7795,"Ġhappy":7796,"Ġtests":7797,"ogan":7798,"iami":7799,"ĠStock":7800,"Ġupd":7801,"ĠArk":7802,"Ġliqu":7803,"Ġlob":7804,"Ġstable":7805,"cho":7806,"Ġdiameter":7807,"Ġfeud":7808,"Ġ1928":7809,"Ġvessel":7810,"Ġisolated":7811,"ĠLennon":7812,"Ġbridges":7813,"eping":7814,"Ġunderstand":7815,"Ġnegotiations":7816,"Ġreprodu":7817,"Ġsympt":7818,"utt":7819,"ĠGuy":7820,"ĠWithin":7821,"Ġagents":7822,"mission":7823,"Ġencountered":7824,"Ġinher":7825,"roke":7826,"Ġpicked":7827,"atically":7828,"Ġgoods":7829,"Ġwithdrew":7830,"ĠHorn":7831,"ĠLim":7832,"Ġdangerous":7833,"Ġ1925":7834,"Ġaged":7835,"Ġfounder":7836,"Ġjunior":7837,"ĠReal":7838,"Ġdiagn":7839,"sea":7840,"Ġbehavi":7841,"Ġsimultane":7842,"ĠRelease":7843,"Ġnormally":7844,"Ġupgraded":7845,"Ġrelie":7846,"Ġfur":7847,"Ġreun":7848,"Ġwindow":7849,"Ġfactor":7850,"roc":7851,"ĠHeavy":7852,"borough":7853,"Ġkeeping":7854,"ĠHorse":7855,"ĠBenn":7856,"ĠDesc":7857,"Ġdeter":7858,"ĠGiants":7859,"Ġsatell":7860,"Ġtie":7861,"Ġpounds":7862,"Ġspecimens":7863,"ĠMalays":7864,"Ġethnic":7865,"ls":7866,"Ġsure":7867,"Ġmedium":7868,"Ġcollaps":7869,"olas":7870,"uda":7871,"Ġ1890":7872,"ĠCam":7873,"etime":7874,"Ġfrequent":7875,"Ġpartly":7876,"Ġtoll":7877,"ĠCz":7878,"bridge":7879,"Ġmir":7880,"Ġorganizations":7881,"Ġlowest":7882,"Ġcrisis":7883,"Ġdiet":7884,"idae":7885,"ĠWrestling":7886,"away":7887,"Ġengineering":7888,"ĠChampionships":7889,"Ġtraveled":7890,"iable":7891,"ĠAnglo":7892,"Ġapprec":7893,"Ġoutf":7894,"Ġvic":7895,"Ġprohib":7896,"Ġresear":7897,"Ġwhereas":7898,"Ġ1924":7899,"ĠWing":7900,"ila":7901,"ĠMiami":7902,"Ġproced":7903,"Ġdesigner":7904,"ĠTrek":7905,"Ġinsc":7906,"Ġrefers":7907,"helm":7908,"Ġtechnique":7909,"ennis":7910,"Ġrarely":7911,"Ġped":7912,"ĠAud":7913,"amese":7914,"ĠSarah":7915,"nest":7916,"ĠBird":7917,"ĠPlayer":7918,"chen":7919,"Ġtone":7920,"Ġlose":7921,"usal":7922,"ĠThor":7923,"Ġdoesn":7924,"iece":7925,"ĠMississ":7926,"Ġturrets":7927,"brid":7928,"col":7929,"Ġorb":7930,"abama":7931,"Ġvice":7932,"gery":7933,"Ġcriticised":7934,"Ġax":7935,"ĠFrederick":7936,"igs":7937,"Ġspending":7938,"Ġ07":7939,"Ġpermission":7940,"Ġpartially":7941,"Ġlad":7942,"Ġmaintenance":7943,"Ġfinale":7944,"ski":7945,"Ġadvice":7946,"ĠSomerset":7947,"Ġdifficulties":7948,"Ġplatinum":7949,"Ġrestric":7950,"Ġpersp":7951,"ĠBuck":7952,"Ġbypass":7953,"ĠAustralians":7954,"Ġuncertain":7955,"FC":7956,"Ġcomplic":7957,"Ġagree":7958,"Ġverse":7959,"Ġphen":7960,"Ġranking":7961,"Ġpolicies":7962,"ĠTreaty":7963,"ygen":7964,"ĠUnlike":7965,"ĠForces":7966,"Ġcompete":7967,"Ġmonument":7968,"Ġmainstream":7969,"Ġproport":7970,"oked":7971,"Ġpersonality":7972,"ĠHans":7973,"Ġindicate":7974,"ilst":7975,"Ġexcell":7976,"Ġunn":7977,"ibbean":7978,"Ġrefuge":7979,"Ġrecordings":7980,"ĠMarshall":7981,"Ġconcerts":7982,"inction":7983,"Ġremove":7984,"uscript":7985,"urance":7986,"ĠMario":7987,"Ġcomments":7988,"ĠNevertheless":7989,"Ġfinals":7990,"attered":7991,"Ġmamm":7992,"Ġanticip":7993,"ĠCaribbean":7994,"Ġwindows":7995,"Ġsafe":7996,"rior":7997,"ĠKnow":7998,"Ġrepair":7999,"Ġsymp":8000,"Ġstrip":8001,"Ġseats":8002,"ĠCanal":8003,"Ġfighters":8004,"Ġrestrict":8005,"Ġfalls":8006,"Ġmoral":8007,"Ġ1923":8008,"chell":8009,"Ġrecommend":8010,"Ġrates":8011,"Ġovers":8012,"Ġrepresentative":8013,"All":8014,"Ġrecur":8015,"Ġjur":8016,"ĠSeattle":8017,"Ġextreme":8018,"Ġalter":8019,"Ġcovers":8020,"Ġtot":8021,"Ġdestroyers":8022,"Ġtruth":8023,"ĠTownship":8024,"Ġpitched":8025,"power":8026,"Ġtenth":8027,"Ġshear":8028,"xual":8029,"ĠYanke":8030,"Ġpin":8031,"Ġforcing":8032,"Ġprotest":8033,"Ġprompted":8034,"sk":8035,"rang":8036,"Ġdiff":8037,"Ġdescribe":8038,"ĠCR":8039,"isd":8040,"Ġhockey":8041,"Ġunderw":8042,"Ġphr":8043,"ĠIowa":8044,"Ġreconst":8045,"ĠBros":8046,"Ġminimum":8047,"Ġbases":8048,"ĠCrown":8049,"Ġtub":8050,"Ġdynasty":8051,"Ġtravelled":8052,"mates":8053,"ifer":8054,"Ġchurches":8055,"ĠJess":8056,"Ġfriendly":8057,"Ġexamples":8058,"Ġpric":8059,"Ġhull":8060,"enh":8061,"ĠAlabama":8062,"ĠAnna":8063,"Ġdrawing":8064,"Ġboys":8065,"Ġneighborhood":8066,"ĠCre":8067,"ĠCall":8068,"ĠGarden":8069,"ĠUSD":8070,"Ġbombers":8071,"ĠML":8072,"ĠBuff":8073,"Ġinaug":8074,"ugby":8075,"Ġdoctor":8076,"Ġtribute":8077,"Ġapproval":8078,"ĠMinistry":8079,"Ġhousing":8080,"Ġdisplayed":8081,"Ġadjacent":8082,"eu":8083,"Ġmand":8084,"Ġcredits":8085,"mers":8086,"ĠMP":8087,"ĠMach":8088,"Ġju":8089,"Ġcollapse":8090,"ĠNazi":8091,"bra":8092,"ante":8093,"Ġlisting":8094,"ods":8095,"Ġcreator":8096,"ĠSenator":8097,"ĠHungary":8098,"alions":8099,"Ġjoining":8100,"Ġaware":8101,"ĠMinnes":8102,"ĠGrammy":8103,"Ġfung":8104,"odore":8105,"Ġgrown":8106,"Ġdesignation":8107,"iac":8108,"ĠHand":8109,"ĠHuman":8110,"Ġpartnership":8111,"Ġexplo":8112,"Ġprotagonist":8113,"ĠLawrence":8114,"Ġturb":8115,"ĠHu":8116,"Ġrefere":8117,"ĠDiego":8118,"ĠCountry":8119,"Ġmoments":8120,"Ġacted":8121,"Äį":8122,"imeter":8123,"ĠOp":8124,"Ġcreative":8125,"Ġchanging":8126,"wa":8127,"ĠDance":8128,"ãģ":8129,"esh":8130,"ĠHamp":8131,"onnaissance":8132,"Ġpowered":8133,"ĠDead":8134,"Ġinstrumental":8135,"Ġasks":8136,"Ġwheel":8137,"Ġarts":8138,"Ġtrend":8139,"itud":8140,"ĠDave":8141,"phone":8142,"ĠNapole":8143,"velt":8144,"Ġradar":8145,"Ġtreaty":8146,"Ġdollars":8147,"Ġadvis":8148,"ĠHealth":8149,"Ġcanal":8150,"Ġpossession":8151,"Ġstorms":8152,"ĠMcD":8153,"Ġappointment":8154,"Ġvictories":8155,"ĠBelgium":8156,"Ġvillages":8157,"ĠAh":8158,"Ġ1905":8159,"ĠDur":8160,"ĠRoc":8161,"Ġels":8162,"ounced":8163,"Ġsurvive":8164,"Ġscientists":8165,"Ġeliminated":8166,"jamin":8167,"otten":8168,"ĠExt":8169,"Ġ1908":8170,"Ġrounds":8171,"Ġelsewhere":8172,"ĠCharlie":8173,"Ġ1909":8174,"Ġsurprise":8175,"Ã§":8176,"Ġcovering":8177,"Ġprecip":8178,"Ġpaintings":8179,"icts":8180,"ĠBlood":8181,"Ġminimal":8182,"ĠGuardian":8183,"gon":8184,"Ġtelling":8185,"ĠLegacy":8186,"Ġseeking":8187,"Ġinnov":8188,"Ġnewspapers":8189,"Re":8190,"Ġarriving":8191,"Ġoccupation":8192,"ivated":8193,"ĠDC":8194,"Ġrhythm":8195,"Ġbrick":8196,"sters":8197,"Ġbenefit":8198,"idd":8199,"ĠHud":8200,"Ġhelping":8201,"ouri":8202,"active":8203,"Ġanaly":8204,"icy":8205,"ecraft":8206,"ĠHockey":8207,"Ġsuicide":8208,"ĠMedal":8209,"Ġpurposes":8210,"ĠVietnamese":8211,"Ġtwin":8212,"Ġvalues":8213,"Ġdispute":8214,"Ġoccasions":8215,"ĠNat":8216,"Ġunlike":8217,"Ġsmooth":8218,"Ġpool":8219,"ĠHills":8220,"rupted":8221,"Ġloan":8222,"Ġgard":8223,"Ġfishing":8224,"ĠBan":8225,"sky":8226,"ĠRepresent":8227,"Ġmurd":8228,"vy":8229,"Ġwet":8230,"Ġoption":8231,"orious":8232,"ĠCold":8233,"ĠAlong":8234,"ĠShakesp":8235,"hattan":8236,"roid":8237,"Ġmanuscript":8238,"Ġsoil":8239,"ographical":8240,"Ġgat":8241,"Ġstruggle":8242,"Ġhelic":8243,"ĠAR":8244,"Ġdegrees":8245,"Ġ105":8246,"mith":8247,"ĠBanks":8248,"Ġcryst":8249,"overs":8250,"Ġschedule":8251,"ĠPeninsula":8252,"orph":8253,"Ġ125":8254,"Ġbalance":8255,"ĠMississipp":8256,"osevelt":8257,"Ġemperor":8258,"Ġ04":8259,"acks":8260,"Ġpreserved":8261,"ĠBrig":8262,"ĠKhan":8263,"Jo":8264,"ĠLl":8265,"atherine":8266,"ĠChildren":8267,"Ġresumed":8268,"Ġpublicly":8269,"rix":8270,"Ġsurvivors":8271,"Ġcateg":8272,"Ġflash":8273,"Ġ1907":8274,"Ġcooper":8275,"ĠGab":8276,"ĠAdminist":8277,"nik":8278,"inally":8279,"Ġcompeted":8280,"ĠTrust":8281,"Ġviolent":8282,"acle":8283,"Ġcandidates":8284,"Ġhonour":8285,"no":8286,"Ġpy":8287,"ĠThen":8288,"rome":8289,"Ġ164":8290,"Ġspan":8291,"munition":8292,"Ġprocl":8293,"Ġpilots":8294,"Ġwedding":8295,"ĠManhattan":8296,"Ġdies":8297,"ishment":8298,"ĠMinnesota":8299,"incial":8300,"mph":8301,"action":8302,"Ġneutral":8303,"Ġabilities":8304,"TA":8305,"rm":8306,"Ġcook":8307,"Ġimpossible":8308,"Ġalignment":8309,"ĠÃĨ":8310,"ĠRand":8311,"Ġbeautiful":8312,"ulating":8313,"Ġconcrete":8314,"Ġmulti":8315,"ĠBeck":8316,"oking":8317,"Ġcoordin":8318,"Ġwrest":8319,"ĠIan":8320,"Ġintensified":8321,"fted":8322,"ĠPolit":8323,"Ġconsult":8324,"ĠKansas":8325,"obile":8326,"Ġargument":8327,"Ġteaching":8328,"ĠTun":8329,"Ġpoison":8330,"Ġadvoc":8331,"Ġprosp":8332,"Ġdefeating":8333,"ĠHotel":8334,"isp":8335,"Ġassisted":8336,"Ġcustom":8337,"ĠDiv":8338,"aud":8339,"Ġelectronic":8340,"Ġlists":8341,"Ġnations":8342,"Ġlem":8343,"Ġdanc":8344,"ilty":8345,"ĠKal":8346,"Ġovert":8347,"Ġserial":8348,"ĠLaure":8349,"ĠHind":8350,"ensions":8351,"Ġbusinesses":8352,"ĠIndustry":8353,"Ġrivers":8354,"ĠCamer":8355,"Ġdiscip":8356,"ĠAff":8357,"Ġabsol":8358,"ĠHong":8359,"Ġsimpl":8360,"ĠRoosevelt":8361,"Ġassists":8362,"Ġelabor":8363,"ĠAlfred":8364,"Ġopponent":8365,"ĠBull":8366,"Ġfoundation":8367,"Ġagricultural":8368,"Ġ165":8369,"eare":8370,"Ġinteresting":8371,"ĠFranklin":8372,"ĠÄ":8373,"Ġsubmitted":8374,"Ġ1880":8375,"Ġtunnel":8376,"Ġmines":8377,"unch":8378,"Ġsuitable":8379,"Ġbacking":8380,"To":8381,"à¤":8382,"Ġencounter":8383,"rÃ©":8384,"Ġsigning":8385,"Ġparent":8386,"ĠFal":8387,"Ġscholar":8388,"bl":8389,"Ġfifteen":8390,"Ġoxygen":8391,"Ġunderstanding":8392,"icer":8393,"ĠSon":8394,"Ġgrey":8395,"ĠChristopher":8396,"iveness":8397,"ĠBenjamin":8398,"Ġciting":8399,"ĠVI":8400,"Ġsymptoms":8401,"die":8402,"dale":8403,"itated":8404,"ĠKurt":8405,"ĠPortland":8406,"ĠSatur":8407,"ĠArea":8408,"Ġorbit":8409,"Ġbehalf":8410,"Ġwaves":8411,"ĠSi":8412,"ĠWard":8413,"ĠBlues":8414,"Ġspiritual":8415,"Ġsank":8416,"Ġsunk":8417,"ctic":8418,"Ġparish":8419,"Ġpercentage":8420,"ĠBh":8421,"ĠShel":8422,"Ġforests":8423,"Ġninet":8424,"Ġsituated":8425,"Ġclosing":8426,"Ġforty":8427,"agen":8428,"Ġsigns":8429,"Ġnom":8430,"ĠFlight":8431,"ĠMississippi":8432,"Ġammunition":8433,"Ġsubjects":8434,"Ġrepairs":8435,"Ġbid":8436,"ĠIce":8437,"ĠLin":8438,"ĠAnim":8439,"Ġusual":8440,"rows":8441,"onymous":8442,"alities":8443,"ĠRap":8444,"Ġvoiced":8445,"asters":8446,"ĠLith":8447,"Ġimperial":8448,"Ġillness":8449,"aron":8450,"Ġjunction":8451,"ĠMichel":8452,"ĠDal":8453,"ĠInterstate":8454,"SP":8455,"essee":8456,"Ġresolution":8457,"ĠBuilding":8458,"Un":8459,"Ġcorpor":8460,"ĠThroughout":8461,"lah":8462,"ĠEvent":8463,"ĠWalker":8464,"ĠHindu":8465,"ori":8466,"Ġassess":8467,"ĠWolf":8468,"Ġasking":8469,"Ġcontroll":8470,"Ġportra":8471,"Ġfunctions":8472,"Ġcollaboration":8473,"Ġdeliber":8474,"father":8475,"Ġdisaster":8476,"Ġaudiences":8477,"Ġattendance":8478,"Ġlieutenant":8479,"Ġsuspended":8480,"Ġrestaurant":8481,"rus":8482,"Ġstring":8483,"Ġunderground":8484,"ĠTag":8485,"eton":8486,"ĠHero":8487,"Ġfeelings":8488,"arth":8489,"amic":8490,"ĠNative":8491,"Ġflights":8492,"Ġworship":8493,"Ġexit":8494,"Ġkne":8495,"Ġevil":8496,"amps":8497,"Since":8498,"Äĥ":8499,"ĠNash":8500,"zz":8501,"ĠAlexand":8502,"Ġcargo":8503,"Ġaffairs":8504,"Ġskull":8505,"Ġtargets":8506,"uv":8507,"ĠRace":8508,"CC":8509,"sex":8510,"Ġmountains":8511,"ĠHistoric":8512,"ĠAthlet":8513,"odge":8514,"ĠKings":8515,"Ġpron":8516,"rator":8517,"Ġwilling":8518,"Ġiniti":8519,"ais":8520,"Ġrecre":8521,"Ġoperational":8522,"Ġ1906":8523,"Ġaffair":8524,"race":8525,"ËĪ":8526,"Ġ360":8527,"Ġearthqu":8528,"ĠWol":8529,"Ġanch":8530,"ĠCole":8531,"Ġfuneral":8532,"Ġprol":8533,"Ġdocuments":8534,"Ġaimed":8535,"Ġcompilation":8536,"ques":8537,"Ġmeasured":8538,"Ġfiled":8539,"resents":8540,"Ġabol":8541,"ĠLouisiana":8542,"Ġlect":8543,"Ġpoorly":8544,"ĠShakespeare":8545,"ng":8546,"uable":8547,"inea":8548,"weet":8549,"Ġ1904":8550,"Ġaffili":8551,"racts":8552,"rants":8553,"orders":8554,"ĠJos":8555,"Ġ1870":8556,"ĠPhilippines":8557,"ĠDw":8558,"Ġcircuit":8559,"ĠEgyptian":8560,"ĠFried":8561,"Ġliked":8562,"Ġregistered":8563,"Ġrout":8564,"Ġconscious":8565,"ĠTennessee":8566,"Ġelder":8567,"andal":8568,"ĠBrun":8569,"ĠCampbell":8570,"ĠSullivan":8571,"ĠFriend":8572,"Ġsubt":8573,"Ġstatue":8574,"Ġfavorable":8575,"Ġadopt":8576,"Ġrecognised":8577,"ĠBox":8578,"Ġprofessor":8579,"anium":8580,"ĠDepression":8581,"Ġentertainment":8582,"Ġbot":8583,"Ġjazz":8584,"Ġtemporarily":8585,"Ġsector":8586,"ĠCob":8587,"Ġexplosion":8588,"ĠLabour":8589,"ĠLam":8590,"ĠComb":8591,"Ġrepresents":8592,"ĠPalest":8593,"ception":8594,"Ġreplacing":8595,"adi":8596,"Ġsequences":8597,"ĠMontreal":8598,"gate":8599,"ĠRab":8600,"ĠVinc":8601,"ĠWriting":8602,"Ġben":8603,"unc":8604,"ika":8605,"Ġshells":8606,"ateur":8607,"Ġfifty":8608,"era":8609,"Ġartwork":8610,"ĠHem":8611,"Ġoffering":8612,"uma":8613,"overe":8614,"Ġpreparation":8615,"Ġrestoration":8616,"idel":8617,"ĠDest":8618,"Ġresidence":8619,"Ġmargin":8620,"Ġinterpre":8621,"Ġwore":8622,"Ġcyl":8623,"Ġ03":8624,"Ġterror":8625,"species":8626,"issions":8627,"Ġreflected":8628,"Ġnucle":8629,"face":8630,"Ġrig":8631,"Ġalliance":8632,"Ġdirectors":8633,"Ġexpensive":8634,"Ġ01":8635,"Ġprime":8636,"Ġreluct":8637,"ĠMissouri":8638,"ĠReturn":8639,"Ġ*":8640,"Ġoverw":8641,"Ġtouring":8642,"Ġcompleting":8643,"ancell":8644,"inental":8645,"Ġalcohol":8646,"Ġamongst":8647,"ylan":8648,"Ġthinking":8649,"Ġbanks":8650,"ĠHalo":8651,"Ġhorror":8652,"Ġsuggesting":8653,"rep":8654,"atus":8655,"Ġrebuilt":8656,"ĠPerform":8657,"ĠMicro":8658,"ellect":8659,"Ġgrav":8660,"ĠIndependent":8661,"Ġpulled":8662,"Ġbay":8663,"rak":8664,"Ġcoverage":8665,"ĠLucas":8666,"Ġcancelled":8667,"bishop":8668,"Ġcod":8669,"Ġfrig":8670,"ĠKu":8671,"ĠStevens":8672,"Ġwasn":8673,"ĠMack":8674,"Ġracing":8675,"quir":8676,"uary":8677,"Ġreven":8678,"ĠDom":8679,"Ġdecides":8680,"Ġescaped":8681,"Ġdimens":8682,"Ġamounts":8683,"Ġerupt":8684,"Ġlacked":8685,"Ġtribes":8686,"Ġcolonies":8687,"ĠSteven":8688,"artney":8689,"Ġclearly":8690,"Ġdramatic":8691,"zona":8692,"Ġcous":8693,"ĠNag":8694,"apping":8695,"overeign":8696,"ĠGuide":8697,"Ġpredomin":8698,"ĠRen":8699,"Ġcommunication":8700,"Ġrit":8701,"ĠCuba":8702,"ĠMargaret":8703,"ĠJosh":8704,"Ġengagement":8705,"ĠFiles":8706,"ĠIndies":8707,"Ġfamiliar":8708,"gro":8709,"Ġgarden":8710,"Ġpatterns":8711,"urally":8712,"Ġmarks":8713,"Ġargues":8714,"Ġownership":8715,"okes":8716,"ĠWarren":8717,"Ġmerchant":8718,"Ġperspective":8719,"ĠMes":8720,"Ġdrove":8721,"ĠCzech":8722,"storm":8723,"Ġsaved":8724,"ĠMcL":8725,"Ġarmored":8726,"rings":8727,"ĠMess":8728,"Ġrecon":8729,"Ġmathemat":8730,"Ġcontributions":8731,"Ġgang":8732,"ĠPle":8733,"Ġwicket":8734,"ĠPersian":8735,"Ġprint":8736,"ĠApple":8737,"ĠKirk":8738,"Ġsolution":8739,"Ġfastest":8740,"Ġremnants":8741,"athy":8742,"ova":8743,"ĠCow":8744,"Ġadministrative":8745,"Ġplayoffs":8746,"Ġtag":8747,"ĠFrid":8748,"Ġseed":8749,"ieties":8750,"Ġartistic":8751,"Ġmilitia":8752,"Ġfalse":8753,"Ġexecut":8754,"Ġcharacterized":8755,"ĠMitchell":8756,"ĠPed":8757,"ĠArizona":8758,"bre":8759,"Ãº":8760,"Ġcrews":8761,"ĠGraham":8762,"Ġrising":8763,"Ġbadly":8764,"ĠTamil":8765,"ĠRing":8766,"Ġboundary":8767,"Some":8768,"Ġseverely":8769,"Ġinstitutions":8770,"idency":8771,"Ġkings":8772,"Ġretail":8773,"Ġarmament":8774,"Ġbulk":8775,"rik":8776,"oga":8777,"Ġflagship":8778,"EC":8779,"ĠLov":8780,"Ġearning":8781,"exp":8782,"ses":8783,"ĠJoh":8784,"Ġdepending":8785,"Ġdisappoin":8786,"ĠBureau":8787,"Ġ115":8788,"Ġexcav":8789,"fish":8790,"itting":8791,"ĠMaur":8792,"ĠYe":8793,"Ġexplains":8794,"Ġbran":8795,"omber":8796,"Ġnotice":8797,"Ġideal":8798,"Ġgenetic":8799,"ĠDragon":8800,"Ġdistinctive":8801,"Ġrestricted":8802,"orer":8803,"Ġfallen":8804,"Ġbowling":8805,"Ġdemonstrated":8806,"equ":8807,"Ġrecip":8808,"Ġbronze":8809,"Ġinland":8810,"Ġthrew":8811,"mented":8812,"elli":8813,"ĠEdge":8814,"Ġranks":8815,"Ġfrust":8816,"Ġcomparison":8817,"Ġcondem":8818,"Ġranging":8819,"Ġcontext":8820,"ĠEP":8821,"SA":8822,"lings":8823,"ĠInitially":8824,"Ġinhabitants":8825,"ĠSnow":8826,"ivia":8827,"ĠMagn":8828,"ĠConfederate":8829,"cru":8830,"uations":8831,"ectic":8832,"pha":8833,"Ġquiet":8834,"ĠScout":8835,"Ġexplain":8836,"ĠPhoen":8837,"Ġarrive":8838,"Ġgap":8839,"ĠSaturday":8840,"Ġpoems":8841,"Ġloop":8842,"Ġmaneu":8843,"Ġcontrols":8844,"Ġpractices":8845,"life":8846,"ĠBilly":8847,"Ġtrick":8848,"ĠkW":8849,"Ġvel":8850,"ĠChand":8851,"formation":8852,"Ġriders":8853,"Ġsisters":8854,"otton":8855,"Ġ174":8856,"Ġobvious":8857,"Ġelectron":8858,"Ġshield":8859,"Ġconservative":8860,"Ġrevol":8861,"Ġwider":8862,"itzerland":8863,"Ġwants":8864,"Ġmental":8865,"ĠTan":8866,"iph":8867,"Ġfaster":8868,"Ġsynd":8869,"ĠSony":8870,"ocking":8871,"ĠBroadway":8872,"hu":8873,"acon":8874,"Ġ1901":8875,"ĠProm":8876,"Ġacceler":8877,"Ġspotted":8878,"Ġkit":8879,"Ġexclud":8880,"Ġmeat":8881,"Ġsurge":8882,"Ġreaches":8883,"Ġplus":8884,"Ġdistinguished":8885,"Ġvulner":8886,"Ġpace":8887,"asts":8888,"Ġnorthward":8889,"Ġtip":8890,"ĠLas":8891,"lahoma":8892,"Ġframe":8893,"Ġexhibition":8894,"ĠVis":8895,"Ġevolved":8896,"Ġapplication":8897,"oven":8898,"aro":8899,"Ġnominations":8900,"Ġgate":8901,"Ġmillimet":8902,"ĠGrey":8903,"Ġagency":8904,"Ġwreck":8905,"ĠNon":8906,"ĠPrior":8907,"ĠBusiness":8908,"Ġtriple":8909,"Ġquarterback":8910,"Ġsatellite":8911,"John":8912,"Ġpalace":8913,"ruption":8914,"Ġhouseholds":8915,"Ġprotein":8916,"Ġsubspecies":8917,"Ġdominant":8918,"Ġprepare":8919,"inations":8920,"Ġtex":8921,"ĠFederation":8922,"Ġstorage":8923,"Ġpredicted":8924,"Ġautobi":8925,"vant":8926,"ĠMarie":8927,"sequently":8928,"ĠWilhelm":8929,"ĠABC":8930,"Ġslaves":8931,"ĠProgram":8932,"din":8933,"urer":8934,"Ġ1903":8935,"Ġintellect":8936,"ĠLang":8937,"anton":8938,"Ġabund":8939,"ĠSwitzerland":8940,"Ġboss":8941,"eland":8942,"grade":8943,"Ġprinted":8944,"uki":8945,"lus":8946,"Ġthor":8947,"ĠCher":8948,"Ġ155":8949,"Ġ1902":8950,"Ġvast":8951,"Ġ02":8952,"Ġarticles":8953,"Ġrepeatedly":8954,"Ġfixed":8955,"Ġvs":8956,"Ġallies":8957,"ĠAustrian":8958,"Ġattained":8959,"Ġcarriers":8960,"Ġpredecessor":8961,"ĠDigital":8962,"Ġtack":8963,"Ġblocks":8964,"Ġstores":8965,"Ġoutl":8966,"Ġvertical":8967,"iders":8968,"ĠLiz":8969,"Ġsurgery":8970,"rose":8971,"Ġstrict":8972,"Ġpeaking":8973,"Ġsignal":8974,"ĠLithuan":8975,"Ġyield":8976,"imen":8977,"Ġbiographer":8978,"Ġphilosophy":8979,"Ġillegal":8980,"Ġphenomen":8981,"Ġdisagre":8982,"riptions":8983,"Ġexcellent":8984,"Ġadventure":8985,"ĠMrs":8986,"ĠSin":8987,"ĠDylan":8988,"Ġperceived":8989,"Ġpretty":8990,"ascar":8991,"rov":8992,"Ġbattalions":8993,"Ġbombs":8994,"fe":8995,"ĠRidge":8996,"Ġwaiting":8997,"Ġremarked":8998,"Ġcomfort":8999,"Ġarmour":9000,"Ġapartment":9001,"Ġseriously":9002,"Ġwestward":9003,"icate":9004,"Ġuseful":9005,"Ġchoose":9006,"yler":9007,"Ġmeetings":9008,"Ġcircumstances":9009,"ĠNa":9010,"Ġtight":9011,"aughters":9012,"Ġcurren":9013,"Ġsket":9014,"Ġcoinc":9015,"Ġsurrend":9016,"ĠRico":9017,"ĠEconom":9018,"Ġdrugs":9019,"ĠOklahoma":9020,"Ġcivilian":9021,"ihanna":9022,"Ġsick":9023,"itage":9024,"ardo":9025,"Ġphone":9026,"Å«":9027,"Ġlayer":9028,"Ġdollar":9029,"ĠBaby":9030,"Ġbreat":9031,"emen":9032,"Ġinstitution":9033,"ĠSmall":9034,"ĠSoon":9035,"Ġchamber":9036,"ĠSeven":9037,"ĠOriginal":9038,"Ġwhilst":9039,"Ġcasting":9040,"rint":9041,"azing":9042,"Ġreaders":9043,"Ne":9044,"apolis":9045,"Ġvisiting":9046,"ĠMurphy":9047,"Ġholid":9048,"Ġgust":9049,"ĠDS":9050,"ĠNik":9051,"Ġreconnaissance":9052,"Ġretain":9053,"Ġmatters":9054,"ĠTerrit":9055,"mi":9056,"Ġrub":9057,"Ã©e":9058,"Ġfriendship":9059,"Ġtiss":9060,"Ġplanets":9061,"Ġsimilarly":9062,"ĠRecord":9063,"ĠDenmark":9064,"Ġstrengthened":9065,"inian":9066,"Ġhorn":9067,"ĠDelaware":9068,"estone":9069,"ĠUE":9070,"arant":9071,"esses":9072,"ĠCampaign":9073,"ĠTokyo":9074,"mingham":9075,"AR":9076,"ĠAmy":9077,"ĠBomb":9078,"Ġdemanded":9079,"ĠHarv":9080,"Ġalternate":9081,"Ġsimultaneously":9082,"TW":9083,"Ġlegacy":9084,"Ġpanel":9085,"Ġenlisted":9086,"onomy":9087,"ĠAbbey":9088,"Ġempt":9089,"Ġ168":9090,"Ġtyphoon":9091,"acc":9092,"Ġinsisted":9093,"ĠSuch":9094,"Ġlanes":9095,"Ġalive":9096,"Ġjustice":9097,"ĠBarry":9098,"ĠAtlanta":9099,"LC":9100,"Ġrevers":9101,"ĠHur":9102,"tha":9103,"ĠStr":9104,"ĠPerry":9105,"Ġhook":9106,"ĠRat":9107,"Ġshipping":9108,"ĠRailroad":9109,"arr":9110,"estyle":9111,"Ġpromised":9112,"Ġrevenue":9113,"entle":9114,"ĠFem":9115,"Ġmainland":9116,"Ġbombing":9117,"ghan":9118,"Ġroots":9119,"Ġdemands":9120,"aration":9121,"Ġconsole":9122,"ĠHarvey":9123,"ĠBaseball":9124,"Ġathletes":9125,"ĠTel":9126,"Ġstruggled":9127,"Ġdrivers":9128,"Ġpersonally":9129,"ĠPrize":9130,"jan":9131,"Ġportions":9132,"Ġpropag":9133,"Ġdefinition":9134,"Ġbehaviour":9135,"lain":9136,"Ġlooks":9137,"ĠPitts":9138,"Ġbacked":9139,"ĠClar":9140,"ĠLeslie":9141,"cott":9142,"acre":9143,"Ġorchestra":9144,"Ġpione":9145,"Ġcontinu":9146,"Ġaudition":9147,"Ġguitarist":9148,"Ġsung":9149,"ĠTon":9150,"Ġsubst":9151,"Ġdiver":9152,"ĠVe":9153,"Ġguilty":9154,"ĠAld":9155,"ĠInternet":9156,"otyp":9157,"ĠRoll":9158,"ĠMadag":9159,"ĠMother":9160,"Ġartific":9161,"Ġarmies":9162,"regation":9163,"Ġjobs":9164,"AC":9165,"iti":9166,"Ġdemolished":9167,"ĠMaj":9168,"odox":9169,"Ġmarketing":9170,"inding":9171,"Ġoblig":9172,"ĠYankees":9173,"Sever":9174,"Ġstarring":9175,"ĠSet":9176,"ĠRihanna":9177,"Ġsurpass":9178,"Ġruling":9179,"ĠMik":9180,"Ġdancing":9181,"ĠWor":9182,"Ġindu":9183,"ĠSoul":9184,"12":9185,"Ġheading":9186,"Ġcounties":9187,"Ġbelieving":9188,"Ġessential":9189,"itis":9190,"ĠInn":9191,"Ġfeels":9192,"Ġprofile":9193,"ĠIran":9194,"umps":9195,"Ġmining":9196,"azines":9197,"Ġfactory":9198,"Ġcompliment":9199,"Ġcup":9200,"olly":9201,"Ġcompens":9202,"Ġincreases":9203,"Ġpursue":9204,"atern":9205,"Ġ166":9206,"folk":9207,"ication":9208,"ĠJuan":9209,"run":9210,"Ġtheater":9211,"ĠFif":9212,"Ġpunk":9213,"Ġorganisation":9214,"Ġdiscovers":9215,"ouver":9216,"Ġobst":9217,"Ġpages":9218,"ĠAy":9219,"Ġdelivery":9220,"Ġbonus":9221,"Ġ109":9222,"ĠSem":9223,"Ġexpression":9224,"Ġdiscont":9225,"raction":9226,"apped":9227,"Ġaffect":9228,"ĠJohnny":9229,"Ġpatron":9230,"je":9231,"Ġclothing":9232,"Ġconspir":9233,"ĠLex":9234,"Ġsucceed":9235,"where":9236,"Ġmultipl":9237,"avery":9238,"Ġsalt":9239,"Ġmobile":9240,"Ġsad":9241,"ĠMuch":9242,"ĠEdwards":9243,"Ġports":9244,"Ġsq":9245,"ĠPil":9246,"Ġelevation":9247,"ĠImpact":9248,"fle":9249,"Ġstick":9250,"ĠChel":9251,"Ġerected":9252,"ĠLost":9253,"ĠNixon":9254,"osm":9255,"Ġcrest":9256,"Ġdoubt":9257,"Ġforecast":9258,"Ġsecretary":9259,"Ġodd":9260,"ultan":9261,"Ġacou":9262,"ĠMcM":9263,"Ġdemocr":9264,"Ġoverseas":9265,"Ġengage":9266,"Ġkiss":9267,"Ġdrink":9268,"tario":9269,"ti":9270,"terbury":9271,"aks":9272,"Ġaccum":9273,"ĠHudson":9274,"cles":9275,"mund":9276,"Ġorn":9277,"ello":9278,"Ġmayor":9279,"Ġsettlers":9280,"bird":9281,"Ġdefences":9282,"Ġhoriz":9283,"irty":9284,"ecticut":9285,"ĠHaving":9286,"Ġchest":9287,"ĠRights":9288,"ĠGray":9289,"Ġdeterior":9290,"Ġaltered":9291,"ĠBuddh":9292,"ĠFat":9293,"aux":9294,"ĠEnterprise":9295,"Ġbaby":9296,"owed":9297,"annon":9298,"Ġrenov":9299,"Ġexpand":9300,"ĠArnold":9301,"ĠWag":9302,"acked":9303,"Ġlisten":9304,"ĠDefence":9305,"Ġcancel":9306,"opp":9307,"Ġmusician":9308,"warf":9309,"oons":9310,"ĠVik":9311,"ĠBosn":9312,"oa":9313,"ĠRub":9314,"Ġvoy":9315,"ĠOntario":9316,"shore":9317,"inces":9318,"Ġpale":9319,"irts":9320,"Ġhighways":9321,"Ġobjective":9322,"Ġstress":9323,"Ġcompounds":9324,"ĠJimmy":9325,"Ġlegislature":9326,"ĠMadagascar":9327,"OS":9328,"Ġconversion":9329,"oker":9330,"ensively":9331,"asant":9332,"stan":9333,"Ġraising":9334,"Ġcampaigns":9335,"ĠKarl":9336,"ĠJonathan":9337,"ĠBaker":9338,"ĠAllies":9339,"Ġsoldier":9340,"Ġaerial":9341,"Ġdisl":9342,"Ġaftermath":9343,"Ġdecisions":9344,"rous":9345,"yrus":9346,"ĠGirls":9347,"Ġscen":9348,"Ġconcentration":9349,"Ġliquid":9350,"Ġsolar":9351,"Ġorganised":9352,"Ġsitting":9353,"ĠPeace":9354,"gs":9355,"ĠGoth":9356,"ĠNear":9357,"ĠObama":9358,"Ġacknowledged":9359,"Ġprove":9360,"akh":9361,"Ġindicating":9362,"mat":9363,"Ġhapp":9364,"Ġhidden":9365,"ulous":9366,"Ġtrouble":9367,"Ġexactly":9368,"Ġwealthy":9369,"Ġwrestling":9370,"ifies":9371,"Ġdanger":9372,"Ġdressed":9373,"Ġradical":9374,"ĠTracy":9375,"Ġchapel":9376,"boy":9377,"aments":9378,"ĠFel":9379,"ĠJup":9380,"Ġpermitted":9381,"Ġdissipated":9382,"Ġimprovements":9383,"Ġstriking":9384,"Ġappropriate":9385,"Ġrealized":9386,"ĠWayne":9387,"ĠConnecticut":9388,"ĠBirmingham":9389,"otte":9390,"Ġraids":9391,"ĠSpart":9392,"Ġski":9393,"ĠUniversal":9394,"ĠPhoenix":9395,"Ġconfron":9396,"Ġgraduated":9397,"ĠPearl":9398,"ĠPars":9399,"15":9400,"ĠMans":9401,"Ġpublications":9402,"Ġremoval":9403,"ĠMountains":9404,"Ġaggressive":9405,"Ġexecution":9406,"Ġencl":9407,"ĠPruss":9408,"erg":9409,"Ġanth":9410,"Ġprofit":9411,"Ġmac":9412,"ratropical":9413,"ĠWorks":9414,"Ġmeter":9415,"ĠCanterbury":9416,"Ġfewer":9417,"Ġvenue":9418,"Ġobservations":9419,"Ġinterpretation":9420,"Ġtravels":9421,"Ġcelebrated":9422,"Ġlin":9423,"ĠRachel":9424,"Ġsharp":9425,"uese":9426,"OT":9427,"inister":9428,"ĠJar":9429,"ancouver":9430,"Ġinitiated":9431,"Ġsky":9432,"Ġtheatrical":9433,"Ġnet":9434,"ĠFurthermore":9435,"agh":9436,"Ġstationed":9437,"Ġcannon":9438,"Ġturret":9439,"ĠCommunity":9440,"ĠSig":9441,"ivation":9442,"ĠFarm":9443,"Ġfounding":9444,"Ġrequires":9445,"Ġevacuated":9446,"ĠFriday":9447,"Ġtort":9448,"Ġpublishing":9449,"itals":9450,"ĠKit":9451,"Ġdefending":9452,"Ġoriginated":9453,"Ġjurisd":9454,"itudes":9455,"adal":9456,"ĠLess":9457,"ipper":9458,"Ġorigins":9459,"Ġdebt":9460,"ĠCost":9461,"Ġ152":9462,"Ġestablishing":9463,"pent":9464,"Ġexplan":9465,"ĠPotter":9466,"Ġmush":9467,"ĠOutstanding":9468,"Ġconsidering":9469,"Ġconnect":9470,"Ġbrill":9471,"Ġsteps":9472,"ĠKl":9473,"ĠBoys":9474,"Ġrebellion":9475,"ĠShaw":9476,"ĠMcCartney":9477,"Ġarrangements":9478,"rapped":9479,"adier":9480,"ĠNAS":9481,"Ġsupple":9482,"ĠKeith":9483,"Ġbones":9484,"Ġshorter":9485,"Ġcutting":9486,"Ġannouncement":9487,"Ġfantasy":9488,"Ġstrategic":9489,"DI":9490,"Ġguarant":9491,"Ġerr":9492,"ĠPlayers":9493,"Ġapproaching":9494,"ĠBobby":9495,"erk":9496,"itively":9497,"ĠRan":9498,"ennium":9499,"Ġmagic":9500,"ĠRal":9501,"aja":9502,"Ġdonated":9503,"ĠDall":9504,"Ġplacing":9505,"Ġmagazines":9506,"Ġaspect":9507,"Ġlying":9508,"ĠPubl":9509,"Ġconnecting":9510,"autical":9511,"Ġwalking":9512,"Ã¦":9513,"hears":9514,"Ġmemor":9515,"Ġ173":9516,"Ġhosts":9517,"Ġongoing":9518,"ĠBath":9519,"ĠMint":9520,"Ġextratropical":9521,"Ġing":9522,"ĠHold":9523,"ĠDrive":9524,"asa":9525,"ĠVancouver":9526,"Ġinsects":9527,"Ġfunny":9528,"hous":9529,"ĠComple":9530,"Ġglac":9531,"Ġdiscussion":9532,"Ġtalent":9533,"Several":9534,"ĠPap":9535,"ĠGate":9536,"Ġmonitor":9537,"Ġedited":9538,"Ġcub":9539,"ĠChampion":9540,"Ġyoungest":9541,"Ġclosest":9542,"Ġcolleagues":9543,"ecution":9544,"ĠStat":9545,"ĠAdministration":9546,"ĠSymph":9547,"ĠMorrison":9548,"Ġqualified":9549,"Ġwithdrawal":9550,"ĠBernard":9551,"Ġgathered":9552,"Ġmal":9553,"Ġforth":9554,"Ġdecide":9555,"Ġrede":9556,"Ġpredict":9557,"Ġ104":9558,"Ġstrongest":9559,"Ġputting":9560,"Ġ1860":9561,"Ġhypothes":9562,"Ġtubes":9563,"à¸":9564,"err":9565,"earing":9566,"Ġbattlecru":9567,"fts":9568,"Ġvolumes":9569,"ĠPortuguese":9570,"ĠTrophy":9571,"Ġlandscape":9572,"ĠEdin":9573,"Ġidentify":9574,"the":9575,"enna":9576,"venth":9577,"Ġgray":9578,"Ġswitch":9579,"Ġcircle":9580,"Ġwatershed":9581,"onium":9582,"ĠHann":9583,"Ġdesert":9584,"Ġcaps":9585,"bow":9586,"Ġforg":9587,"ĠHugh":9588,"Ġmerely":9589,"Ġangle":9590,"Ġindicates":9591,"Ġsupplied":9592,"Ġchallenged":9593,"ĠTodd":9594,"ĠPakistan":9595,"Ġcollapsed":9596,"Ġ1893":9597,"onald":9598,"Ġbeam":9599,"ĠDiam":9600,"Ġconfront":9601,"ĠWindows":9602,"ĠGriff":9603,"Ġexposure":9604,"Ġmarkets":9605,"elta":9606,"ĠForeign":9607,"atra":9608,"Ġles":9609,"ĠManu":9610,"ĠPatt":9611,"ĠLegend":9612,"ĠOpp":9613,"Ġpartial":9614,"Ġneighbour":9615,"Ġspecimen":9616,"ĠTriple":9617,"ĠMem":9618,"ĠNine":9619,"Ġdensity":9620,"avel":9621,"ĠTed":9622,"ĠPa":9623,"Ġshift":9624,"Ġbare":9625,"Ġbrig":9626,"ĠShip":9627,"Ġlimits":9628,"Most":9629,"Ġvisits":9630,"Ġdubbed":9631,"ĠJupiter":9632,"ĠTNA":9633,"agger":9634,"ĠZe":9635,"Ġcock":9636,"ĠCov":9637,"Ġmembership":9638,"Ġconventional":9639,"hard":9640,"ĠMong":9641,"join":9642,"ĠLion":9643,"Ġspac":9644,"ĠChampions":9645,"soft":9646,"Ġprovision":9647,"Ġfeeding":9648,"Ġhydrogen":9649,"ĠHampshire":9650,"ĠLat":9651,"ĠLen":9652,"Ġ1896":9653,"Ġconcentrated":9654,"Ġplain":9655,"Ġeducational":9656,"aft":9657,"Ġannually":9658,"Ġbearing":9659,"Ġseized":9660,"ĠNCAA":9661,"Ġtopped":9662,"ieth":9663,"Ġcorps":9664,"ĠAfghan":9665,"ugg":9666,"ĠKan":9667,"Ġretro":9668,"ĠAbd":9669,"ĠReserve":9670,"ĠTol":9671,"otal":9672,"Ġclin":9673,"Ġattending":9674,"Ġranges":9675,"ye":9676,"irates":9677,"ista":9678,"Ġexha":9679,"athers":9680,"Ġduo":9681,"rod":9682,"Ġassembly":9683,"ĠDeb":9684,"Ġchampions":9685,"Ġmarry":9686,"ĠMission":9687,"iper":9688,"Ġparody":9689,"amental":9690,"igenous":9691,"Ġbacter":9692,"Ġnavy":9693,"Ġ127":9694,"Ġ1898":9695,"ĠNapoleon":9696,"ĠLaur":9697,"ĠCharts":9698,"Ġemphasis":9699,"Ġinvestigate":9700,"Ġdogs":9701,"Ġoffense":9702,"Ġlegit":9703,"ĠMeteor":9704,"Ġanime":9705,"Ġproductions":9706,"ĠDwight":9707,"Ġweekly":9708,"Many":9709,"onica":9710,"Ġfurn":9711,"Ġjury":9712,"Ã¼r":9713,"ĠEdinburgh":9714,"terior":9715,"Ġexercise":9716,"Ġticket":9717,"ioc":9718,"Ġunless":9719,"ĠEventually":9720,"Ġ172":9721,"Ġ350":9722,"Ġtalking":9723,"ĠCycl":9724,"Ġtrough":9725,"Ġbasin":9726,"ĠVictorian":9727,"ĠBradman":9728,"Ġcoup":9729,"ĠMosc":9730,"olve":9731,"Ġpromotional":9732,"ĠPam":9733,"Ġprize":9734,"Ġceased":9735,"Ġcruc":9736,"Ġbond":9737,"ĠDemocrats":9738,"uzzle":9739,"Ġbone":9740,"Ġemployment":9741,"Ã°":9742,"ported":9743,"Ġfortress":9744,"Ġflooded":9745,"Ġbirthday":9746,"Ġportrayal":9747,"Ġfill":9748,"ayan":9749,"Ġadvertising":9750,"rolled":9751,"Ġuncom":9752,"Ġregime":9753,"Ġqueen":9754,"ĠBeng":9755,"ĠGary":9756,"Ġuncle":9757,"uart":9758,"ĠDod":9759,"Ġpersons":9760,"Ġattitude":9761,"Ġconservation":9762,"ĠLib":9763,"umble":9764,"Ġinvent":9765,"Ġcoff":9766,"rawn":9767,"Ġoutput":9768,"ĠYorkshire":9769,"Ġsending":9770,"Ġeval":9771,"Ġballad":9772,"aman":9773,"ĠConvention":9774,"Ġexperimental":9775,"Ġphotographs":9776,"Ġunderwent":9777,"imm":9778,"ĠDale":9779,"Ġbishop":9780,"Ġsoftware":9781,"ĠVillage":9782,"Ġscattered":9783,"pled":9784,"Ġguide":9785,"Ġquestioned":9786,"ĠTig":9787,"Ġhitting":9788,"amas":9789,"Ġprovincial":9790,"Ġdrinking":9791,"oviÄĩ":9792,"Ġaggreg":9793,"Ġassembled":9794,"Ġoverwhel":9795,"Ġ1899":9796,"MI":9797,"ĠDub":9798,"Ġendors":9799,"Ġtranslation":9800,"ĠSay":9801,"ĠOur":9802,"ĠAlice":9803,"Ġmature":9804,"Ġunclear":9805,"ĠChronicle":9806,"ĠChes":9807,"Ġoutd":9808,"anner":9809,"Ġreplied":9810,"hammad":9811,"Ġstere":9812,"Ġwire":9813,"Ġpapers":9814,"Ġ101":9815,"Ġcens":9816,"ĠMarvel":9817,"rapy":9818,"Ġcousin":9819,"ashes":9820,"Ġexternal":9821,"Ġtrail":9822,"Ġlawyer":9823,"Ġcommentary":9824,"Ġswimming":9825,"ĠBach":9826,"ĠJoy":9827,"Ġcoat":9828,"Ġrepresentatives":9829,"Ġliberal":9830,"Ġproclaim":9831,"Ġimagery":9832,"OK":9833,"Ġclock":9834,"ĠMaya":9835,"Ġterrain":9836,"idal":9837,"Ġlawsu":9838,"Ġthirteen":9839,"ĠBrothers":9840,"ications":9841,"Ġcomprom":9842,"ologies":9843,"ĠÃĨthel":9844,"ĠTob":9845,"Ġempire":9846,"Ġshr":9847,"assador":9848,"ĠMeg":9849,"ĠPersonal":9850,"ĠCelt":9851,"ĠFlying":9852,"ĠYears":9853,"Ġloved":9854,"rip":9855,"Ġmonaster":9856,"Ġwait":9857,"Ġduration":9858,"aders":9859,"Ġmovies":9860,"Ġexpert":9861,"ĠChristianity":9862,"ĠCritics":9863,"Ġpictures":9864,"Ġexclusive":9865,"Ġacoustic":9866,"Ġstreak":9867,"Ġelectricity":9868,"ĠGene":9869,"Ġslave":9870,"Ġdaughters":9871,"ersed":9872,"Ġdevast":9873,"Ġburial":9874,"Ġbranches":9875,"hin":9876,"Ġsang":9877,"Ġcad":9878,"ĠIsa":9879,"Ġaccompanying":9880,"urd":9881,"Ġstronger":9882,"owski":9883,"ĠHonor":9884,"ĠArgentina":9885,"ĠQueensland":9886,"Ġsurrendered":9887,"ĠPin":9888,"Ġtenure":9889,"Ġbeats":9890,"ĠSeason":9891,"Ġarrives":9892,"Ġidentical":9893,"ĠTit":9894,"alling":9895,"ensed":9896,"mn":9897,"atever":9898,"ĠAnc":9899,"pler":9900,"hell":9901,"Ġsuccession":9902,"Ġdread":9903,"ĠMand":9904,"Ġreverse":9905,"riors":9906,"place":9907,"Ġ108":9908,"Ġreveal":9909,"ĠTurner":9910,"Ġreinforcements":9911,"ĠWii":9912,"Ġcomponents":9913,"Ġcharter":9914,"Ġ169":9915,"ĠBoat":9916,"ĠFinland":9917,"ario":9918,"Ġprices":9919,"ĠType":9920,"ĠAx":9921,"ellation":9922,"Ġprev":9923,"ĠLloyd":9924,"Ġtrading":9925,"Ġdestroying":9926,"ĠMonte":9927,"Ġreducing":9928,"Ġpenet":9929,"ĠLt":9930,"Ġscar":9931,"Ġpush":9932,"ĠNatural":9933,"ĠFleming":9934,"ĠHawaii":9935,"ĠFund":9936,"olen":9937,"illes":9938,"Ġspaces":9939,"ĠOliver":9940,"Ġfailing":9941,"ĠCommunist":9942,"Ġcomponent":9943,"Ġcompeting":9944,"Ġtomb":9945,"ĠHeritage":9946,"Ġmechanical":9947,"uras":9948,"abe":9949,"ricts":9950,"Ġsleep":9951,"ĠProtest":9952,"Ġexclusively":9953,"Ġ1850":9954,"ĠBooks":9955,"Ġisot":9956,"redits":9957,"Ġgovernments":9958,"IV":9959,"Ġprecipitation":9960,"Ġstops":9961,"Ġatomic":9962,"ĠKap":9963,"Ġquad":9964,"Ġmyst":9965,"Ġslavery":9966,"Ġcounterp":9967,"ĠCollins":9968,"Ph":9969,"angel":9970,"Ġdevelopers":9971,"Ġdict":9972,"Ġdevices":9973,"onian":9974,"Ġpole":9975,"Ġreward":9976,"ibilities":9977,"Ġpolar":9978,"Ġelig":9979,"itarian":9980,"ĠGor":9981,"Ġtraded":9982,"Ġfossil":9983,"Ġbanned":9984,"Ġcenters":9985,"Ġmini":9986,"ĠGlen":9987,"case":9988,"Ġwish":9989,"ĠKam":9990,"Ġvaried":9991,"ĠUEFA":9992,"Ġobsc":9993,"ĠPy":9994,"ĠMarge":9995,"ĠCad":9996,"ĠPink":9997,"ĠJama":9998,"ĠBelgian":9999,"enesis":10000,"Ġflowers":10001,"Ġconsistent":10002,"ĠAS":10003,"uded":10004,"Ġredes":10005,"Ġcontribution":10006,"Ġplatforms":10007,"ĠRangers":10008,"ĠKo":10009,"Ġradiation":10010,"Ġartificial":10011,"Ġtube":10012,"Ġincom":10013,"Ġconsiders":10014,"Ġow":10015,"Ġpel":10016,"Ġwaste":10017,"Ġhumor":10018,"ĠEmmy":10019,"ĠNorfolk":10020,"Ġbath":10021,"legraph":10022,"Ġarchitectural":10023,"Ġburned":10024,"Ġvirus":10025,"Ġintersects":10026,"Ġsongwriter":10027,"Ġdisb":10028,"Ġelectrical":10029,"Ġhybrid":10030,"ĠLiberal":10031,"ethel":10032,"ĠPad":10033,"ocy":10034,"Ġtalks":10035,"Ġearthquake":10036,"ĠDin":10037,"roph":10038,"rank":10039,"Ġfourteen":10040,"ĠJerry":10041,"pike":10042,"Ġlie":10043,"ĠMalt":10044,"Ġproceeded":10045,"Ġreviewed":10046,"Arthur":10047,"Ġboilers":10048,"Ġadvised":10049,"ĠTransportation":10050,"Ġecc":10051,"Ġdestroyer":10052,"Ġunderstood":10053,"eto":10054,"Ġprofession":10055,"ĠTraining":10056,"ĠPrix":10057,"Ġ163":10058,"Ġimprovement":10059,"rastructure":10060,"acles":10061,"Ġ1897":10062,"Ġfrequency":10063,"ĠDram":10064,"Ġamateur":10065,"Ġconflic":10066,"ĠBeaut":10067,"Ġhandled":10068,"Ġcopper":10069,"ĠServices":10070,"Ġtexts":10071,"Ġheir":10072,"aze":10073,"ĠDak":10074,"ĠHowe":10075,"ĠScientology":10076,"Ġairfield":10077,"Ã¶n":10078,"Ġrein":10079,"ĠCricket":10080,"Ġconceived":10081,"Ġrequirements":10082,"OC":10083,"encing":10084,"ĠHardy":10085,"Ġinduct":10086,"Ġtheore":10087,"olds":10088,"Ġportr":10089,"iciency":10090,"Ġsamples":10091,"ĠSaxon":10092,"Ġsixteen":10093,"Ġphrase":10094,"bal":10095,"ĠSle":10096,"ĠEug":10097,"ĠThose":10098,"Ġreferring":10099,"uating":10100,"itely":10101,"ensis":10102,"ĠHarbor":10103,"Ġinvestment":10104,"ĠList":10105,"Ġrespective":10106,"Ġreduction":10107,"Ġshares":10108,"Ġusers":10109,"ulty":10110,"Ġweigh":10111,"Ġcharity":10112,"Ġ106":10113,"ĠMedical":10114,"Ġtactics":10115,"rehens":10116,"Ġcertainly":10117,"ĠCraig":10118,"Ġworn":10119,"ĠMust":10120,"ĠBlu":10121,"ĠGallery":10122,"ĠBak":10123,"ĠRic":10124,"Ġpraising":10125,"Ġvoting":10126,"Ġcleared":10127,"Ġgrossing":10128,"ĠNicholas":10129,"Ġunw":10130,"axy":10131,"Ġparks":10132,"Ġflows":10133,"Ġconstitutional":10134,"Ġsoph":10135,"ĠApoll":10136,"Ġlabour":10137,"Ġtoured":10138,"Ġexceed":10139,"Ġphotography":10140,"strong":10141,"Ġnit":10142,"tery":10143,"Ġconnections":10144,"ĠMoscow":10145,"eding":10146,"ĠTax":10147,"Ġlock":10148,"ffield":10149,"Ġ154":10150,"Ġruler":10151,"Ġqualifying":10152,"Ġspoken":10153,"Ġblind":10154,"Ġcommanding":10155,"ĠMarket":10156,"Ġcommenced":10157,"ĠTak":10158,"avor":10159,"ĠYellow":10160,"Ġautumn":10161,"Ġshoulder":10162,"Ġsurvival":10163,"car":10164,"Ã«":10165,"ĠOslo":10166,"Ġsweet":10167,"Ġunlik":10168,"etheless":10169,"gom":10170,"lad":10171,"ĠSomet":10172,"ĠHob":10173,"Ġ167":10174,"Ġcontinuous":10175,"Ġsignature":10176,"ĠRalph":10177,"Ġfisher":10178,"Ġreorgan":10179,"ĠAra":10180,"ĠBurton":10181,"ĠHarvard":10182,"Ġstuff":10183,"rh":10184,"ĠSak":10185,"ĠSwiss":10186,"ĠProfessor":10187,"ĠBennett":10188,"Ġfasc":10189,"Ġconfidence":10190,"Ġcommunist":10191,"Ġpatients":10192,"ĠVincent":10193,"Ġexists":10194,"Ġopportunities":10195,"Ġenthusi":10196,"icated":10197,"Ġnautical":10198,"ĠJun":10199,"Ġtonnes":10200,"ĠAndre":10201,"Ġtransported":10202,"Ġtaxes":10203,"Ġlegislative":10204,"ĠDyn":10205,"ĠLock":10206,"ingham":10207,"ĠâĢ¦":10208,"Ġrocks":10209,"ĠPeters":10210,"Ġmelody":10211,"ĠPittsburgh":10212,"ĠAM":10213,"Ġcamps":10214,"Ġrelocated":10215,"bes":10216,"aters":10217,"ĠDeep":10218,"Ġuranium":10219,"ĠBroadcast":10220,"haw":10221,"porting":10222,"Ġcompetitive":10223,"ĠCurt":10224,"ĠPic":10225,"Ġtranslated":10226,"Ġnat":10227,"ĠAftermath":10228,"Ġreinforced":10229,"Ġtested":10230,"Ġfulf":10231,"Ġindeed":10232,"ĠJTW":10233,"illo":10234,"Ġdece":10235,"ashi":10236,"Ġminority":10237,"Ġwithdrawn":10238,"Ġfairly":10239,"ĠJTWC":10240,"Cl":10241,"Ġpairs":10242,"ĠCatherine":10243,"anger":10244,"ĠDavies":10245,"Ġtraveling":10246,"ĠTrail":10247,"Ġmanga":10248,"Ġcommanders":10249,"Ġrevolt":10250,"ĠIndonesia":10251,"Ġsovereign":10252,"rost":10253,"Ġmoon":10254,"Ġblues":10255,"Ġ111":10256,"ĠRud":10257,"ĠNi":10258,"Ġimpression":10259,"ĠMond":10260,"cester":10261,"Ġexplicit":10262,"Ġrevised":10263,"minster":10264,"uto":10265,"Ġnoble":10266,"Ġcartoon":10267,"ĠHughes":10268,"ĠSyria":10269,"hum":10270,"Ġuncon":10271,"ĠThunder":10272,"ĠSwift":10273,"ĠSom":10274,"ĠBald":10275,"oca":10276,"tes":10277,"ĠCO":10278,"ĠLook":10279,"Ġprogramming":10280,"Ġcrops":10281,"Ġenforce":10282,"expected":10283,"ĠAP":10284,"ĠPrim":10285,"Ġfram":10286,"ĠGot":10287,"Ġaccord":10288,"Ġextending":10289,"eared":10290,"eston":10291,"Ġexperiments":10292,"Ġchron":10293,"Ġdischar":10294,"Ġpromin":10295,"urricanes":10296,"Ġdisplaced":10297,"ĠUpper":10298,"ĠAlaska":10299,"Ġearn":10300,"Ġprisoner":10301,"ĠDarwin":10302,"Ġvoices":10303,"Ġpap":10304,"Ġhole":10305,"rien":10306,"Ġcarries":10307,"Ġprinciples":10308,"ĠSweet":10309,"Ġwarfare":10310,"ĠAntonio":10311,"asks":10312,"ĠKate":10313,"seud":10314,"ussion":10315,"Before":10316,"ationally":10317,"avia":10318,"Ġextinct":10319,"isive":10320,"Ġconce":10321,"Ġprovinces":10322,"Ġdistant":10323,"Ġrepresentation":10324,"Ġcatal":10325,"Ġlearns":10326,"oda":10327,"Ġcharacteristic":10328,"Ġmagnitude":10329,"oria":10330,"Ġculmin":10331,"TS":10332,"ĠRP":10333,"Ġsumm":10334,"Ġwonder":10335,"ĠLiving":10336,"Ġlights":10337,"ĠSecurity":10338,"Ġinterpreted":10339,"Ġcraft":10340,"ĠMayor":10341,"Ġsample":10342,"ĠMS":10343,"Ġabuse":10344,"itious":10345,"Ġnerv":10346,"ĠHerald":10347,"Ġ1895":10348,"len":10349,"Ġmarine":10350,"Ġapproaches":10351,"ĠDonald":10352,"ĠMason":10353,"utton":10354,"aching":10355,"Ġvictim":10356,"Ġrivalry":10357,"rooms":10358,"Ġherit":10359,"uez":10360,"Ġrelatives":10361,"ĠSimilarly":10362,"Ġshifted":10363,"Ġhem":10364,"Ġcompound":10365,"Ġcuts":10366,"Ġpractical":10367,"Ġdisplays":10368,"ĠPictures":10369,"ĠAli":10370,"ĠClassic":10371,"ĠOri":10372,"Ġburning":10373,"ĠMicrosoft":10374,"zed":10375,"ĠLem":10376,"ĠInv":10377,"Ġwarnings":10378,"ĠIsraeli":10379,"ĠCameron":10380,"Ġid":10381,"Ġrestore":10382,"ĠFalls":10383,"Ġchore":10384,"Ġskill":10385,"ĠRichmond":10386,"Ġblocked":10387,"Ġthunder":10388,"Ġairing":10389,"ĠGuinea":10390,"Ġtraditions":10391,"Ġlighting":10392,"Ġjudg":10393,"Ġproposals":10394,"Ġbull":10395,"Ġrehears":10396,"ags":10397,"ambers":10398,"ĠOfficer":10399,"ĠJefferson":10400,"Ġpreparing":10401,"Ġmans":10402,"Ġmyster":10403,"Ġtransportation":10404,"ĠDallas":10405,"Ġsings":10406,"ĠStars":10407,"Ġgirlfriend":10408,"Ġmedicine":10409,"ĠSid":10410,"ĠClay":10411,"Ġrebels":10412,"Ġmultiplayer":10413,"Ã¥":10414,"ĠProp":10415,"ĠOrange":10416,"Ġparticipation":10417,"Ġgraduate":10418,"Ġscores":10419,"umped":10420,"Ġweb":10421,"Ġmarch":10422,"Ġabsent":10423,"ĠWoman":10424,"ĠPhys":10425,"Ġvaluable":10426,"Ġunlikely":10427,"aha":10428,"Ġinterviews":10429,"Ġconven":10430,"berry":10431,"onge":10432,"Ġprotests":10433,"Ġbrilliant":10434,"Other":10435,"Ã¢":10436,"ĠFu":10437,"ĠFBI":10438,"Ġriding":10439,"Ġdistricts":10440,"Ġsalv":10441,"Ġcreek":10442,"ocity":10443,"merce":10444,"Ġfilmm":10445,"ĠGrace":10446,"Ġcyclones":10447,"Ġsalary":10448,"ĠFinally":10449,"ĠDefense":10450,"Ġwished":10451,"Ġpier":10452,"leans":10453,"Ġ102":10454,"ĠSheffield":10455,"ginning":10456,"ĠTerry":10457,"Ġpassion":10458,"Ġestimates":10459,"Ġmaintaining":10460,"ĠCass":10461,"Ġinfl":10462,"ĠDescription":10463,"Ġcourses":10464,"Ġrecovery":10465,"Ġreforms":10466,"ĠEmer":10467,"Ġintervention":10468,"Ġcabinet":10469,"imp":10470,"ĠChile":10471,"ĠAustin":10472,"Ġamph":10473,"Ġarguing":10474,"ĠWallace":10475,"ĠFormation":10476,"Ġracial":10477,"Ġcinema":10478,"Ġfest":10479,"ĠCraw":10480,"ĠRest":10481,"Ġbeneath":10482,"Ġdrummer":10483,"ĠTai":10484,"ĠChen":10485,"uri":10486,"ĠSteel":10487,"Ġpetition":10488,"Ġaft":10489,"Ġgarn":10490,"Ġcontend":10491,"ĠQuebec":10492,"Upon":10493,"ĠHav":10494,"ĠEc":10495,"Ġclar":10496,"ĠDanish":10497,"Ġgrandfather":10498,"Ġrecurring":10499,"ĠVel":10500,"ĠGeoff":10501,"ĠQuest":10502,"iar":10503,"ĠStef":10504,"Ġkills":10505,"Ġadvertis":10506,"ĠWhere":10507,"Ġupset":10508,"Ġreleg":10509,"Ġsignificance":10510,"Ġvulnerable":10511,"ĠSega":10512,"Ġcommunications":10513,"Ġaccurate":10514,"ĠRu":10515,"ource":10516,"ĠAdv":10517,"Ġeating":10518,"ĠSusan":10519,"Ġtowers":10520,"ĠSug":10521,"ĠOsc":10522,"Ġstatistics":10523,"Ġdiverse":10524,"ocal":10525,"ME":10526,"reated":10527,"Ġnumbered":10528,"Ġvalid":10529,"lete":10530,"ĠAer":10531,"cha":10532,"ĠWells":10533,"ĠBrazilian":10534,"Ġsponsored":10535,"Two":10536,"ĠAgency":10537,"ĠGreatest":10538,"ĠLuke":10539,"oting":10540,"achute":10541,"ĠOriginally":10542,"ĠAuthority":10543,"ĠCathedral":10544,"Ġsurve":10545,"ĠOrleans":10546,"Ġparas":10547,"Ġapplications":10548,"ĠGreater":10549,"ĠNord":10550,"Ġcant":10551,"Ġhind":10552,"ĠEff":10553,"Ġclothes":10554,"Ġdecorated":10555,"ĠÐ":10556,"ĠEis":10557,"Ġunexpected":10558,"beat":10559,"Ġansw":10560,"erver":10561,"ĠOverall":10562,"Ġshallow":10563,"Ġtoler":10564,"ĠHalf":10565,"ĠMalaysia":10566,"abilities":10567,"Ġshock":10568,"Ġairline":10569,"ĠGuitar":10570,"ĠNev":10571,"ĠHaz":10572,"ĠRena":10573,"osexual":10574,"ĠCyrus":10575,"Ġefficient":10576,"ĠPrincip":10577,"Ġsteep":10578,"Ġsacrif":10579,"ĠLarry":10580,"Ġinclusion":10581,"Ġlasting":10582,"ĠExper":10583,"ĠMI":10584,"utor":10585,"ĠGa":10586,"Ġconsolid":10587,"ĠJohnston":10588,"Ġfaces":10589,"Ġmorph":10590,"wright":10591,"Ġsummit":10592,"Ġsquadrons":10593,"ĠConstantin":10594,"ĠGlobe":10595,"Ġmate":10596,"ĠHD":10597,"ĠEve":10598,"Ġessentially":10599,"Ġanswer":10600,"Ġtale":10601,"itate":10602,"ĠDaw":10603,"ĠSpirit":10604,"ĠNext":10605,"ĠFourth":10606,"Ġsurprised":10607,"Ġpm":10608,"Ġ1889":10609,"Ġgender":10610,"ĠOwen":10611,"ĠClarke":10612,"ipped":10613,"Ġjet":10614,"affe":10615,"Ġ1861":10616,"ĠRio":10617,"Ġcharted":10618,"ĠBryan":10619,"ĠFr":10620,"Ġchronic":10621,"Ġdeeply":10622,"Ġemotion":10623,"Ġmood":10624,"ĠSign":10625,"Ġliner":10626,"Ġbeaten":10627,"rary":10628,"unning":10629,"landers":10630,"ĠProvince":10631,"edia":10632,"hers":10633,"ĠYam":10634,"asha":10635,"Ġratio":10636,"ĠParsons":10637,"Ġtheories":10638,"Ġ158":10639,"anche":10640,"Ġpotentially":10641,"dess":10642,"ocation":10643,"Ã©t":10644,"Ġ1894":10645,"Ġsuspic":10646,"ĠUtah":10647,"ĠCBS":10648,"Ġmanage":10649,"Ġdrafted":10650,"Ġmerged":10651,"ĠSerbian":10652,"ĠLocal":10653,"Ġdancers":10654,"Ġfate":10655,"Ġho":10656,"ĠSac":10657,"aiden":10658,"ĠReich":10659,"Ġcrimes":10660,"Ġsegments":10661,"ĠHey":10662,"keeper":10663,"levard":10664,"Ġproportion":10665,"Ġtours":10666,"lex":10667,"Ġsentence":10668,"Ġprocesses":10669,"ĠPanzer":10670,"ĠJunior":10671,"iko":10672,"ĠCultural":10673,"vet":10674,"Ġ162":10675,"castle":10676,"Ġcivilians":10677,"reens":10678,"ĠSalt":10679,"Ġdemo":10680,"Ġswit":10681,"Ġmerc":10682,"Ġdescent":10683,"Ġgrave":10684,"Tube":10685,"Ġbeating":10686,"Ġscr":10687,"ĠAT":10688,"ĠFisher":10689,"enson":10690,"Ġ1891":10691,"Ġdual":10692,"ĠLink":10693,"ĠOm":10694,"Ġ113":10695,"ĠIl":10696,"ĠKane":10697,"onsin":10698,"Ġreactions":10699,"Ġbeauty":10700,"Ġpersuaded":10701,"Ġheritage":10702,"NC":10703,"Ġhills":10704,"ĠMcKin":10705,"Ġboot":10706,"Ġdense":10707,"ĠRepublicans":10708,"Ġimplemented":10709,"Ġbell":10710,"Ġdim":10711,"ĠArmstrong":10712,"ĠNeil":10713,"Ġfunded":10714,"Ġaltitude":10715,"Ġmanip":10716,"ATO":10717,"ĠStill":10718,"ĠPriv":10719,"Ġ1000":10720,"Ġaccommodate":10721,"asm":10722,"ĠFighter":10723,"ĠGay":10724,"ĠAmendment":10725,"ĠKaiser":10726,"ĠChelsea":10727,"istent":10728,"ĠSee":10729,"Ġcolors":10730,"Ġsoutheastern":10731,"Ġagriculture":10732,"Ġsculpture":10733,"Ġfollowers":10734,"ĠAmb":10735,"Ġstructural":10736,"Ġrib":10737,"Ġpip":10738,"Ġcomplained":10739,"Ġwine":10740,"ĠVers":10741,"Ġevident":10742,"Ġfeared":10743,"Ġpresentation":10744,"Ġadminister":10745,"aping":10746,"Ġrequiring":10747,"Ġtribe":10748,"Ġcolumns":10749,"Ġproof":10750,"ĠPlant":10751,"born":10752,"Ġdevoted":10753,"Ġsailing":10754,"ĠPicture":10755,"gie":10756,"sts":10757,"Ġaddressed":10758,"boards":10759,"13":10760,"Ġ<":10761,"Ġdwarf":10762,"ĠLiter":10763,"ocket":10764,"ĠScar":10765,"Ġ1892":10766,"Ġnurs":10767,"ĠEnt":10768,"ĠXII":10769,"ĠIndonesian":10770,"Ġrejoin":10771,"yself":10772,"Ġoriented":10773,"ĠSout":10774,"ĠCS":10775,"ĠMend":10776,"arks":10777,"Ġ156":10778,"Ã©s":10779,"olar":10780,"Ġtriang":10781,"Ġbreaks":10782,"Ġfame":10783,"Ġrecept":10784,"Ġ135":10785,"ĠOrchest":10786,"ĠActor":10787,"ni":10788,"heric":10789,"Ġerror":10790,"Ġtruck":10791,"Ġinteraction":10792,"ĠMuhammad":10793,"sburg":10794,"ĠTogether":10795,"ĠAA":10796,"Ġjack":10797,"isconsin":10798,"Ġobservation":10799,"ĠStudio":10800,"Ġgolden":10801,"Ġvoyage":10802,"ĠTang":10803,"ĠRegister":10804,"ĠOfficial":10805,"Ġpregnant":10806,"Ġconfusion":10807,"Ġjudges":10808,"isons":10809,"urst":10810,"Ġgene":10811,"Ġ1800":10812,"Ġintermedi":10813,"Ġoperates":10814,"Ġkidn":10815,"rific":10816,"Ġmythology":10817,"bu":10818,"Ġcards":10819,"Ġpink":10820,"ĠYouTube":10821,"Ġholiday":10822,"ĠSox":10823,"Ġ240":10824,"Ġquarters":10825,"Ġâģ":10826,"Ġsuperst":10827,"Ġresearchers":10828,"usalem":10829,"Ġknee":10830,"Music":10831,"Ġrect":10832,"ĠIvan":10833,"ĠPS":10834,"Ġwritings":10835,"Ġcommenting":10836,"Ġjurisdiction":10837,"Ġbears":10838,"ulus":10839,"anted":10840,"othy":10841,"Ġrepris":10842,"Ġsuddenly":10843,"atched":10844,"Ġadvancing":10845,"Ġopens":10846,"izer":10847,"ospel":10848,"Ġdiplomatic":10849,"ĠSymphony":10850,"Le":10851,"ĠEth":10852,"Ġextensively":10853,"Ġcategories":10854,"nels":10855,"iously":10856,"ĠBuffalo":10857,"Ġsugar":10858,"phan":10859,"ĠProduct":10860,"ĠHarold":10861,"Ġembarked":10862,"lon":10863,"nt":10864,"oded":10865,"cliff":10866,"osaurs":10867,"master":10868,"Ġtension":10869,"Ġthrown":10870,"Ġhighlighted":10871,"Ġsized":10872,"alls":10873,"ometric":10874,"Ġphysics":10875,"ĠâģĦ":10876,"Ġmud":10877,"Ġ153":10878,"ĠMinor":10879,"Ġages":10880,"Ġassum":10881,"Ġfert":10882,"ĠCavalry":10883,"Ġgaining":10884,"lington":10885,"amount":10886,"quest":10887,"Ġstudying":10888,"Ġsimilarities":10889,"Ġsentenced":10890,"Ġstatements":10891,"Ġdrown":10892,"Ġprinciple":10893,"ĠCardiff":10894,"Ġchallenges":10895,"ĠNature":10896,"Ġequally":10897,"ĠâĤ¹":10898,"ĠAirlines":10899,"Ġtooth":10900,"Ġknocked":10901,"ĠConservation":10902,"ĠFerr":10903,"enos":10904,"ĠBible":10905,"Ġmanif":10906,"ĠBurns":10907,"ao":10908,"ĠEdition":10909,"Ġlifetime":10910,"Ġgardens":10911,"ĠPerformance":10912,"Ġgift":10913,"ĠPoly":10914,"Ġorange":10915,"ĠEight":10916,"Ġinfrastructure":10917,"ĠPant":10918,"Ġfee":10919,"Ġlocally":10920,"Ġeducated":10921,"ĠJerusalem":10922,"aser":10923,"Ġrivals":10924,"ĠStuart":10925,"Ġ1888":10926,"Ġconstitu":10927,"18":10928,"ĠSultan":10929,"ĠHope":10930,"chi":10931,"Ġuniversal":10932,"Ġdisturbance":10933,"ĠIslamic":10934,"pine":10935,"ĠWonder":10936,"Ġrings":10937,"Ġdivorce":10938,"ĠMetropolitan":10939,"Ġoverlook":10940,"mo":10941,"ĠPast":10942,"ĠPok":10943,"ĠWa":10944,"ucker":10945,"ĠGameSp":10946,"thodox":10947,"Ġtraditionally":10948,"ÃŃn":10949,"Ġpredators":10950,"Ġdealing":10951,"Ġsword":10952,"Ġboundaries":10953,"ancellor":10954,"Ġties":10955,"Ġgh":10956,"osph":10957,"Ġvariation":10958,"kh":10959,"sor":10960,"ĠBorn":10961,"ĠFitz":10962,"ĠNewton":10963,"Ġpriest":10964,"ĠTyler":10965,"ĠPrest":10966,"Ġresolved":10967,"Ġdocumented":10968,"ĠConstantine":10969,"Ġexplaining":10970,"ĠGrade":10971,"Ġrecruited":10972,"Ġempty":10973,"ĠDays":10974,"ĠWisconsin":10975,"gomery":10976,"zing":10977,"Ġtape":10978,"Ġnep":10979,"ĠCrus":10980,"Ġsettlements":10981,"Ġstretch":10982,"rift":10983,"Ġenabled":10984,"Ġforb":10985,"Ġreceives":10986,"Ġ1885":10987,"Ġvillain":10988,"Ġspawn":10989,"Ġconsiderably":10990,"ĠAber":10991,"Ġhostile":10992,"Ġcommercially":10993,"Ġdiscontin":10994,"ĠCemetery":10995,"ulsion":10996,"Ġtravelling":10997,"Ġtickets":10998,"Ġfold":10999,"ĠGround":11000,"Ġseas":11001,"Ġsupern":11002,"Ġgarnered":11003,"Ġurg":11004,"Ġnaming":11005,"ĠWalt":11006,"Ġhelps":11007,"Ġexplore":11008,"Ġinvolves":11009,"ĠPatri":11010,"ĠGang":11011,"Ġcliff":11012,"Ġrescued":11013,"Ġbenefits":11014,"Ġtasked":11015,"aple":11016,"backs":11017,"Ġoptions":11018,"Ġcry":11019,"Ġlift":11020,"Ġstrand":11021,"ĠHeb":11022,"Ġweakening":11023,"ĠHunter":11024,"ĠApollo":11025,"ĠScots":11026,"Ġsmoke":11027,"Ġguy":11028,"Ġcrashed":11029,"Ġ978":11030,"Ġashore":11031,"Ġdimin":11032,"Ġdisorder":11033,"Ġsubstitute":11034,"ĠActress":11035,"Ġescorted":11036,"Ġconcurrent":11037,"ĠHad":11038,"ovak":11039,"rene":11040,"Ġassert":11041,"ĠQuar":11042,"cut":11043,"Ġflex":11044,"celand":11045,"Ġwarships":11046,"Ġvolunteers":11047,"lights":11048,"ĠAlt":11049,"Ġhoused":11050,"Ġbatted":11051,"Ġdying":11052,"ĠKid":11053,"Ġdoors":11054,"ĠCentury":11055,"ĠTrade":11056,"ĠBoeing":11057,"Ġproteins":11058,"ĠIndependence":11059,"Ġdepicts":11060,"Ġdetect":11061,"ĠMovie":11062,"Ġconcerning":11063,"wald":11064,"HS":11065,"ĠRey":11066,"Ġepic":11067,"ĠLegisl":11068,"ĠJohann":11069,"Ġconflicts":11070,"Ġspar":11071,"Ġelaborate":11072,"uters":11073,"Ġstyl":11074,"agers":11075,"ellar":11076,"Ġcircular":11077,"Ġdinner":11078,"ĠFIFA":11079,"ĠSud":11080,"ĠDanny":11081,"Ġvig":11082,"Ġinnoc":11083,"Ġimprisoned":11084,"ĠJoan":11085,"Ġinning":11086,"ĠKyle":11087,"gged":11088,"Ã©n":11089,"ĠBaron":11090,"Ġpursuit":11091,"ĠBaltic":11092,"Ġborrow":11093,"ds":11094,"ĠMind":11095,"ĠSchum":11096,"Ġgods":11097,"Ġfra":11098,"Ġreass":11099,"ĠAges":11100,"Ġnut":11101,"ÃŃa":11102,"Ġinhib":11103,"Another":11104,"ĠFull":11105,"ĠThames":11106,"Ġauthorized":11107,"Ġcollections":11108,"Ġpursued":11109,"ÉĻ":11110,"ĠCP":11111,"ĠEnv":11112,"Ġeditions":11113,"Ġtempo":11114,"Ġharbour":11115,"lane":11116,"piece":11117,"Ġteammate":11118,"Ġ112":11119,"Ġ145":11120,"Ġcompetitions":11121,"ĠBrooks":11122,"ĠCer":11123,"ĠChristians":11124,"Ġrevival":11125,"Ġfavourite":11126,"bi":11127,"hill":11128,"Ġfron":11129,"ĠLeaf":11130,"ĠSaturn":11131,"uction":11132,"Ġpill":11133,"ĠBud":11134,"ĠFact":11135,"Ġramp":11136,"Ġopposing":11137,"Ġpoliticians":11138,"Ġdrain":11139,"Ġ1865":11140,"ĠMontgomery":11141,"Ġchemistry":11142,"ĠAttorney":11143,"tains":11144,"ĠNas":11145,"Ġeventual":11146,"Ġliver":11147,"Ġmanufacturing":11148,"Ġvirtually":11149,"Ġportrait":11150,"Ġcensus":11151,"ourag":11152,"ĠElectric":11153,"Ġbeliefs":11154,"Ġrenewed":11155,"var":11156,"Ġcam":11157,"Ġconj":11158,"ritic":11159,"ĠMeth":11160,"ĠZone":11161,"Ġscreenplay":11162,"ĠJustin":11163,"Ġvelocity":11164,"ĠMall":11165,"ĠRuth":11166,"Ġrushing":11167,"ĠHearts":11168,"ĠRogers":11169,"Ġurged":11170,"Ġveteran":11171,"sa":11172,"ĠAren":11173,"Ġlaps":11174,"Ġstones":11175,"Ġchase":11176,"Ġabroad":11177,"Ġsuspected":11178,"ĠÏ":11179,"Ġunve":11180,"Ġhandling":11181,"Ġmixture":11182,"Ġcable":11183,"Ġleaf":11184,"ĠEvil":11185,"ĠBask":11186,"Ġspur":11187,"Ġexamination":11188,"Ġcattle":11189,"ĠAthens":11190,"ĠFlore":11191,"ĠBarnes":11192,"ĠWithout":11193,"ĠBranch":11194,"ĠWes":11195,"ĠComedy":11196,"ĠAbu":11197,"Ġuniversities":11198,"eling":11199,"ĠIns":11200,"ublin":11201,"ĠMidd":11202,"Ġcongress":11203,"ĠSonic":11204,"Ġstolen":11205,"Ġpromise":11206,"Ġmedals":11207,"otion":11208,"ando":11209,"ridor":11210,"Ġparticipants":11211,"Ġremembered":11212,"isition":11213,"Ġ117":11214,"Ġpossess":11215,"Ġpromoting":11216,"ĠTribune":11217,"ĠRepresentatives":11218,"Ġverte":11219,"for":11220,"gow":11221,"inery":11222,"onation":11223,"lem":11224,"ĠTourn":11225,"arest":11226,"Ġ159":11227,"Ġcapturing":11228,"Ġrendered":11229,"itic":11230,"anim":11231,"ĠUC":11232,"Ġcolours":11233,"Ġtrailer":11234,"Ġinherited":11235,"Ġcow":11236,"izz":11237,"Ġinterven":11238,"ĠMiles":11239,"Ġthereby":11240,"Ġorganisms":11241,"ĠRegional":11242,"Ġpitcher":11243,"14":11244,"Ġapply":11245,"Ġsharks":11246,"Ġtaste":11247,"Ġsor":11248,"ĠSean":11249,"ĠTurkey":11250,"Ġdecreased":11251,"Ġbombardment":11252,"Ġloud":11253,"ĠIceland":11254,"Ġcomics":11255,"rible":11256,"Ġtrapped":11257,"Ġaccidentally":11258,"Ġprox":11259,"point":11260,"ĠBert":11261,"Ġvital":11262,"Ġpositively":11263,"ĠFace":11264,"ĠNeb":11265,"occ":11266,"ĠReport":11267,"Ġtracked":11268,"Ġtissue":11269,"Ġtel":11270,"ĠTu":11271,"ĠCode":11272,"ĠPas":11273,"Ġcostume":11274,"racks":11275,"ĠPierre":11276,"ĠTow":11277,"ĠPul":11278,"ĠNS":11279,"istor":11280,"Ġdecay":11281,"oba":11282,"Ġmetric":11283,"ĠExecutive":11284,"Ġinhab":11285,"zh":11286,"ĠMarines":11287,"Ġcompositions":11288,"ilda":11289,"Ġinvaded":11290,"Ġhopes":11291,"ĠJudge":11292,"ĠSherman":11293,"Ġrand":11294,"Ġwarned":11295,"ĠMagic":11296,"Ġ450":11297,"Ġcelebration":11298,"Ġjuven":11299,"isan":11300,"Ġthro":11301,"Ġoccasional":11302,"Ġblend":11303,"auc":11304,"Ġsav":11305,"ĠNATO":11306,"Ġ114":11307,"Ġprototype":11308,"Ġconfirm":11309,"ĠDraft":11310,"ĠSpider":11311,"Ġ118":11312,"Ġmaps":11313,"Ġrains":11314,"ĠMacArthur":11315,"Ġhoping":11316,"erts":11317,"roe":11318,"colm":11319,"ĠConstantinople":11320,"LA":11321,"ampton":11322,"idia":11323,"ĠJe":11324,"quer":11325,"Ġlinks":11326,"ĠHeavyweight":11327,"ĠSyn":11328,"ĠNova":11329,"Ġtornado":11330,"Ġib":11331,"Ġdust":11332,"ĠFil":11333,"ĠPortugal":11334,"ĠTitan":11335,"ĠSic":11336,"vo":11337,"Ġupcoming":11338,"Ġvariations":11339,"ĠAffairs":11340,"asp":11341,"Ġlaugh":11342,"icking":11343,"Ġanticipated":11344,"ĠWed":11345,"Ġguests":11346,"Ġ1864":11347,"Ġboyfriend":11348,"ĠCe":11349,"ĠHunt":11350,"ovic":11351,"fly":11352,"áº":11353,"Ġbomber":11354,"Ġdozen":11355,"Ġgenu":11356,"Ġbatteries":11357,"ĠToy":11358,"Ġrever":11359,"Ġimpressive":11360,"Ġprovisions":11361,"Ġmarking":11362,"Ġseparation":11363,"ĠSaf":11364,"ĠBright":11365,"igious":11366,"Ġscandal":11367,"ĠNewcastle":11368,"Ġaccessible":11369,"Ġeasier":11370,"limin":11371,"Î±":11372,"Ġsinking":11373,"Ġlaboratory":11374,"ĠChapel":11375,"Ġhorizont":11376,"Ġnickname":11377,"Ġfires":11378,"ulum":11379,"eps":11380,"icken":11381,"ĠGran":11382,"Ġrugby":11383,"Ġdependent":11384,"Ġbiological":11385,"ĠLeonard":11386,"held":11387,"ĠCrow":11388,"Ġnose":11389,"ĠReagan":11390,"Ġindigenous":11391,"Ġsupports":11392,"Ġafford":11393,"ER":11394,"bing":11395,"ĠTru":11396,"ĠLaboratory":11397,"mont":11398,"agles":11399,"neys":11400,"restrial":11401,"Ġthreats":11402,"ĠBarbara":11403,"ught":11404,"ĠYouth":11405,"Ġtrunk":11406,"Ġpolitician":11407,"ĠLiberty":11408,"Ġparliamentary":11409,"Ġavoided":11410,"Ġrandom":11411,"ĠFern":11412,"Ġconsumption":11413,"16":11414,"Î¿":11415,"artime":11416,"ĠLev":11417,"Ġvolcanic":11418,"ĠBeh":11419,"Ġfed":11420,"Ġlighter":11421,"ĠJoint":11422,"Ġprogressed":11423,"Ġhandle":11424,"ĠManagement":11425,"ĠStein":11426,"Ġtherm":11427,"orted":11428,"atsu":11429,"ĠFish":11430,"Ġformula":11431,"Ġdefenders":11432,"Ġfier":11433,"amine":11434,"Ġdeputy":11435,"Ġeld":11436,"ĠGlas":11437,"Ġbiography":11438,"Ġtruly":11439,"Ġrestrictions":11440,"Am":11441,"enberg":11442,"ĠSide":11443,"ailing":11444,"Ġhyper":11445,"orf":11446,"Ġda":11447,"amics":11448,"ĠGon":11449,"ptic":11450,"Ġimposed":11451,"ĠControl":11452,"ĠRomney":11453,"Ġcorporate":11454,"Ġcash":11455,"Ġfles":11456,"ĠDuch":11457,"ĠFlow":11458,"ĠKrist":11459,"ĠVoice":11460,"Ġmurdered":11461,"rogen":11462,"ĠMi":11463,"ĠNancy":11464,"Ġusage":11465,"Ġmixing":11466,"ĠMeteorological":11467,"Ġtoxic":11468,"ĠBapt":11469,"agg":11470,"iah":11471,"Ġenh":11472,"Ġevacuation":11473,"Ġlicense":11474,"ĠArmenian":11475,"ĠBoulevard":11476,"Ġnoticed":11477,"Ġparticles":11478,"Ġoccurring":11479,"ĠProtestant":11480,"Ad":11481,"Ġwound":11482,"alg":11483,"Ġproduces":11484,"Ġcustomers":11485,"ĠCharlotte":11486,"gel":11487,"ĠCinem":11488,"ĠHas":11489,"ĠTree":11490,"ĠBears":11491,"ielder":11492,"Ġacre":11493,"etta":11494,"Ġdreadn":11495,"ĠCinc":11496,"ĠLP":11497,"oples":11498,"Ġcontracts":11499,"changed":11500,"Ġpor":11501,"ĠMang":11502,"oom":11503,"Ġãĥ":11504,"Ġkiller":11505,"ĠAgainst":11506,"Ġlawsuit":11507,"osy":11508,"ĠKon":11509,"Ġexile":11510,"ĠInvest":11511,"ĠCornwall":11512,"heimer":11513,"ĠFriends":11514,"ĠDublin":11515,"acht":11516,"ĠEnergy":11517,"Ġcathedral":11518,"Ġtimber":11519,"ĠOrchestra":11520,"Ġrelation":11521,"Ġ1862":11522,"Ġengineers":11523,"Ġchoir":11524,"Ġtouchdowns":11525,"enz":11526,"Ġspeculation":11527,"Ġwake":11528,"ĠLower":11529,"ĠERA":11530,"Ġprest":11531,"ĠJosÃ©":11532,"ĠGuild":11533,"ĠRef":11534,"Ġdebris":11535,"Ġordinary":11536,"Ġintellectual":11537,"ĠEnvironment":11538,"ju":11539,"pin":11540,"Ġfab":11541,"Ġhence":11542,"Ġplates":11543,"Ġeastward":11544,"Ġnephew":11545,"ĠZh":11546,"Ġangry":11547,"Ġdepicting":11548,"yan":11549,"ĠChester":11550,"Ġ107":11551,"ĠAgu":11552,"ĠFreedom":11553,"Ġdisappointed":11554,"Ġthreatening":11555,"ĠAntar":11556,"Ġconquest":11557,"ĠAthletic":11558,"hl":11559,"Ġaside":11560,"ĠThan":11561,"emble":11562,"Ġindustries":11563,"Ġignored":11564,"Ġdevelopments":11565,"bach":11566,"overed":11567,"uche":11568,"ĠXX":11569,"Ġconvicted":11570,"Ġlyrical":11571,"Ġkilog":11572,"Ġencounters":11573,"Ġundertaken":11574,"ĠSaw":11575,"ĠMix":11576,"ĠFight":11577,"ĠMetro":11578,"ĠMerced":11579,"Ġdecrease":11580,"Ġthunderstorm":11581,"ĠCryst":11582,"Ġmechanism":11583,"onial":11584,"ĠCase":11585,"nex":11586,"ded":11587,"ĠAction":11588,"ĠChair":11589,"ĠSlav":11590,"ĠErnest":11591,"Ġrevolutionary":11592,"She":11593,"Ġstrikes":11594,"Ġterritorial":11595,"ĠContinental":11596,"Ġthrowing":11597,"Ġcomplicated":11598,"Ġmit":11599,"ĠCena":11600,"umbered":11601,"Ġward":11602,"Ġchrom":11603,"Ġune":11604,"Ġvicinity":11605,"ĠÄĲ":11606,"Ġå":11607,"ĠSex":11608,"ĠShah":11609,"Ġconfident":11610,"Ġexhibit":11611,"itime":11612,"phal":11613,"Ġstern":11614,"itol":11615,"Ġmounts":11616,"ĠTerm":11617,"ĠSkin":11618,"rav":11619,"Ġremin":11620,"Ġbreast":11621,"Ġelite":11622,"ĠPeng":11623,"osion":11624,"opic":11625,"ĠLeices":11626,"entieth":11627,"aco":11628,"olia":11629,"Ġ220":11630,"Ġhumanity":11631,"ĠRoom":11632,"Ġchampionships":11633,"Ġconversation":11634,"Ġcu":11635,"WA":11636,"Ġmos":11637,"ĠBreak":11638,"Ġcontacted":11639,"Ġboost":11640,"Ġlacking":11641,"Ġfocuses":11642,"Ġmammals":11643,"Ġinaugural":11644,"ĠMV":11645,"Ġpreserve":11646,"Ġ157":11647,"Ġsuspension":11648,"ĠAlberta":11649,"Ġarose":11650,"Ġpenn":11651,"ĠCand":11652,"Ġentert":11653,"ĠCollection":11654,"ĠSpringfield":11655,"Ġhelicopter":11656,"iture":11657,"ĠHom":11658,"ĠVick":11659,"Ġrealistic":11660,"Ġhonest":11661,"ĠBeth":11662,"Ġgif":11663,"Ġfarmers":11664,"ĠLuft":11665,"ĠCincinn":11666,"ĠDJ":11667,"iked":11668,"Ġfacil":11669,"ĠTournament":11670,"uber":11671,"Ġmetre":11672,"Ġconstantly":11673,"Ġposts":11674,"uka":11675,"Through":11676,"etary":11677,"Ġasserted":11678,"ĠOscar":11679,"Ġstim":11680,"ĠVeg":11681,"Ġtools":11682,"ellers":11683,"Ġinfection":11684,"ĠOthers":11685,"Ġ1840":11686,"ĠPete":11687,"ĠCareer":11688,"ĠArchbishop":11689,"Ġdiamond":11690,"yc":11691,"icing":11692,"ĠChad":11693,"ĠZero":11694,"ĠSerbia":11695,"oirs":11696,"Ġpredominantly":11697,"iga":11698,"Ġdesper":11699,"Ġpatri":11700,"Ġvoters":11701,"ĠMuslims":11702,"Ġinfer":11703,"Ġthorough":11704,"ocol":11705,"ĠMicha":11706,"Ġphoto":11707,"Ġcollaborated":11708,"ĠCanu":11709,"Ġunt":11710,"Ġfeathers":11711,"Ġpatient":11712,"ĠTake":11713,"Ġremoving":11714,"ĠPedro":11715,"11":11716,"Ġcentered":11717,"hanced":11718,"Ġabsorbed":11719,"ĠWatch":11720,"ortion":11721,"udi":11722,"Ġreleasing":11723,"raltar":11724,"Ġpeninsula":11725,"ĠYugoslavia":11726,"quiry":11727,"Ġtune":11728,"Ġmad":11729,"Ġholes":11730,"ischer":11731,"ĠMalcolm":11732,"Hg":11733,"omed":11734,"ework":11735,"assy":11736,"sson":11737,"Ġcastles":11738,"ĠMarshal":11739,"However":11740,"Ġuser":11741,"Ġgrows":11742,"Ġapolog":11743,"Ġrelieved":11744,"ĠLS":11745,"Ġcompiled":11746,"Ġillustrated":11747,"ĠRI":11748,"ubble":11749,"Ġattorney":11750,"Ġexplanation":11751,"ĠMalta":11752,"Ġpig":11753,"Ġroadway":11754,"Ġknows":11755,"onnie":11756,"ĠUk":11757,"Ġspeeds":11758,"Ġsustain":11759,"Ġcanceled":11760,"inter":11761,"Ġresid":11762,"Ġretrie":11763,"Ġisn":11764,"auge":11765,"Ġsituations":11766,"regular":11767,"Ġenorm":11768,"Ġ126":11769,"ahl":11770,"Ġantib":11771,"ĠGabri":11772,"Ġsheep":11773,"ennial":11774,"Ġindependently":11775,"Ġbowl":11776,"Ġbreeds":11777,"ĠTyphoon":11778,"ĠChamberlain":11779,"ĠFuture":11780,"ĠGlee":11781,"ringe":11782,"ĠPlace":11783,"Ġconspiracy":11784,"Ġencom":11785,"ĠNormandy":11786,"ĠCincinnati":11787,"ĠAL":11788,"Ġ132":11789,"ĠKenneth":11790,"ĠGates":11791,"enburg":11792,"issioned":11793,"Ġ1887":11794,"oi":11795,"Ġlover":11796,"ĠVilla":11797,"ĠShiva":11798,"ĠAlliance":11799,"Ġpleased":11800,"ĠAfghanistan":11801,"ĠVegas":11802,"ĠSection":11803,"ĠAny":11804,"Ġmarched":11805,"Down":11806,"encer":11807,"asury":11808,"ĠFly":11809,"Ġoffshore":11810,"ĠComics":11811,"ĠParks":11812,"ĠMaine":11813,"music":11814,"Ġaest":11815,"utter":11816,"ĠLords":11817,"Ġclergy":11818,"Ġlayers":11819,"hart":11820,"Ġcouldn":11821,"rels":11822,"Ġprosper":11823,"Ã´":11824,"Ġoutstanding":11825,"ĠGibraltar":11826,"Ġpaying":11827,"ĠKaz":11828,"Ġarena":11829,"Ġviewing":11830,"Ġlocomotives":11831,"ĠIsaac":11832,"ĠTaiwan":11833,"gÃ©":11834,"ĠBark":11835,"ĠKin":11836,"Ġexpanding":11837,"Ġblast":11838,"Ġ119":11839,"ulates":11840,"ĠReed":11841,"Ġ1863":11842,"Ġclosure":11843,"ĠBradley":11844,"Ġvarying":11845,"Ġfant":11846,"Ġmild":11847,"Ġbutter":11848,"Ġbackst":11849,"Ġgenres":11850,"£o":11851,"Ġmask":11852,"overty":11853,"icular":11854,"ĠChet":11855,"Ġcolored":11856,"ĠTraff":11857,"avan":11858,"ĠEddie":11859,"Ġarmoured":11860,"Ġdisappeared":11861,"hall":11862,"yers":11863,"Ġsentiment":11864,"Ġ1886":11865,"ĠVIII":11866,"imony":11867,"arting":11868,"ĠOrd":11869,"umberland":11870,"ĠRevolutionary":11871,"instein":11872,"Ġperc":11873,"ĠShield":11874,"Ġreporting":11875,"Ġdropping":11876,"Ġcelebrate":11877,"liminary":11878,"Ġbapt":11879,"Ġspir":11880,"izard":11881,"ribution":11882,"Ġsuggestion":11883,"Ġfungus":11884,"Ġlib":11885,"Ġregulations":11886,"ĠChurchill":11887,"zes":11888,"ĠMaced":11889,"Ġgrid":11890,"aneous":11891,"ĠBrooklyn":11892,"Ġinducted":11893,"ipher":11894,"ĠTechnology":11895,"Ġasc":11896,"ĠJNA":11897,"ĠWaters":11898,"Ġwitnesses":11899,"found":11900,"acular":11901,"ĠKill":11902,"ĠPel":11903,"ĠJake":11904,"Ġflour":11905,"ĠTommy":11906,"ĠËĪ":11907,"Ġreporter":11908,"Ġnevertheless":11909,"Ġfaculty":11910,"ĠMorning":11911,"Ġattraction":11912,"gus":11913,"ishn":11914,"ĠShep":11915,"ĠTint":11916,"Ġconced":11917,"ĠTwitter":11918,"Ġeagle":11919,"ĠMann":11920,"ĠBrowns":11921,"Ġcompanion":11922,"Ġromance":11923,"feld":11924,"leted":11925,"ĠTrad":11926,"Ġsubmer":11927,"ĠHispan":11928,"ĠMadison":11929,"ĠConservative":11930,"inated":11931,"omon":11932,"ĠDud":11933,"Ġremote":11934,"Ġretreated":11935,"Ġblamed":11936,"Ġswept":11937,"Ġtent":11938,"gett":11939,"Ġsubmarines":11940,"Ġpseud":11941,"ĠTir":11942,"Ġpublicity":11943,"Ġverses":11944,"Ġorganic":11945,"Ġpositioned":11946,"Ġaf":11947,"Ġstored":11948,"odium":11949,"Ġabb":11950,"Ġparking":11951,"flow":11952,"ĠRush":11953,"Ġatop":11954,"Ġfundamental":11955,"Ġoxid":11956,"ĠWagner":11957,"bie":11958,"ubbard":11959,"ĠPay":11960,"Ġwhatever":11961,"ĠThr":11962,"ĠOrton":11963,"Ġfortifications":11964,"New":11965,"ĠBurke":11966,"ĠPrinceton":11967,"ĠCyclone":11968,"Ġaqu":11969,"Ġsulf":11970,"eda":11971,"ĠSor":11972,"Ġannex":11973,"Ġshelter":11974,"ĠOrganization":11975,"gary":11976,"Ġmail":11977,"Ġcondemned":11978,"Bob":11979,"Ġfocusing":11980,"Ġtargeted":11981,"ĠTigers":11982,"Ġfract":11983,"elin":11984,"ĠCort":11985,"Ġstability":11986,"ĠNation":11987,"usters":11988,"CO":11989,"ĠinHg":11990,"Ġlung":11991,"Ġnoise":11992,"Ġ1884":11993,"ĠRobin":11994,"eness":11995,"Ġgentle":11996,"ĠRus":11997,"ĠRear":11998,"Ġprogressive":11999,"ĠHood":12000,"ĠEld":12001,"iki":12002,"Ġswing":12003,"Ġflown":12004,"Ġirregular":12005,"rity":12006,"ĠEsc":12007,"lett":12008,"Ġcorresponding":12009,"Ġrecruit":12010,"Ġrab":12011,"Ġdetected":12012,"Ġdrunk":12013,"Ġcurve":12014,"opy":12015,"ĠLeeds":12016,"ĠCanucks":12017,"ĠSad":12018,"Ġconfused":12019,"Ġdisbanded":12020,"qual":12021,"ĠAltern":12022,"ĠIsle":12023,"Ġresignation":12024,"ĠHus":12025,"ĠLud":12026,"ĠVo":12027,"Ġpreceding":12028,"Ġfossils":12029,"Ġcruise":12030,"Ġchallenging":12031,"Ġcha":12032,"Ġconvince":12033,"Ġencourag":12034,"areness":12035,"Ġmelod":12036,"Ġtorpedoes":12037,"Ġtelephone":12038,"Ġmentions":12039,"ĠSchumacher":12040,"Ġupris":12041,"Ġregiments":12042,"Ġ103":12043,"Ġwinners":12044,"Ġmagnetic":12045,"Ġferry":12046,"hend":12047,"Ġroster":12048,"Ġrebounds":12049,"ĠMLB":12050,"ĠFriedrich":12051,"DA":12052,"Ġfault":12053,"Ġbore":12054,"arded":12055,"Ġquoted":12056,"Ġdirecting":12057,"Ġmachines":12058,"ĠOlivia":12059,"ĠPokÃ©":12060,"onso":12061,"ĠTests":12062,"ĠHull":12063,"Ġscrap":12064,"Ġinsurance":12065,"ĠSmack":12066,"Ġbrings":12067,"ĠOpera":12068,"ËĲ":12069,"Ġstudios":12070,"Ġcalculated":12071,"ĠCou":12072,"ĠBrid":12073,"Ġrice":12074,"Ġtourist":12075,"igation":12076,"Ġworse":12077,"Ġdiversity":12078,"Ġterminal":12079,"Ġsolely":12080,"ĠPhillies":12081,"nda":12082,"isk":12083,"atty":12084,"Ġthanks":12085,"Ġtriumph":12086,"Ġconcepts":12087,"Ġcreature":12088,"Ġjudicial":12089,"ĠBris":12090,"ĠBCE":12091,"ĠGregory":12092,"ĠSteam":12093,"Ġdarker":12094,"ĠAncient":12095,"Ġnice":12096,"ĠGlasgow":12097,"ĠBurg":12098,"ishops":12099,"ĠTalk":12100,"eta":12101,"aku":12102,"ĠEdmund":12103,"Ġhistorically":12104,"Ġfavored":12105,"Ġscholarship":12106,"Ġmyself":12107,"Ġhide":12108,"ĠFather":12109,"ĠSerge":12110,"Ġtap":12111,"alin":12112,"ewise":12113,"Ġrouting":12114,"Ġ1877":12115,"ĠÃī":12116,"ourable":12117,"Ġfo":12118,"Ġgear":12119,"cell":12120,"ĠRound":12121,"avian":12122,"overy":12123,"hentic":12124,"Ġ129":12125,"ĠWestminster":12126,"ĠMonth":12127,"ĠMontana":12128,"Ġexamined":12129,"ĠCEO":12130,"Ġcotton":12131,"ampa":12132,"Ġprompting":12133,"cont":12134,"Ġconfig":12135,"ĠBrah":12136,"ĠSA":12137,"Ġjew":12138,"ĠHolland":12139,"Ġzero":12140,"ĠStudies":12141,"Ġrotation":12142,"ĠMcKinley":12143,"ĠLamb":12144,"ĠStri":12145,"Ġ138":12146,"Ġtrio":12147,"Ġbattlefield":12148,"Ġcommitment":12149,"Ġsteadily":12150,"ĠFifth":12151,"umi":12152,"Ġagencies":12153,"ĠAustro":12154,"iors":12155,"atisf":12156,"lude":12157,"ĠGhost":12158,"Ġreconstruction":12159,"Ġmasc":12160,"geon":12161,"Ġ122":12162,"Ġtroop":12163,"Ġrounded":12164,"Ġ1876":12165,"Ġacclaimed":12166,"sis":12167,"Ġwartime":12168,"ĠCry":12169,"ĠDennis":12170,"ĠBarcel":12171,"works":12172,"Ġballs":12173,"Ġmessages":12174,"ĠTheater":12175,"Ġsharing":12176,"Ġ230":12177,"aton":12178,"ĠCoal":12179,"Ġmeasuring":12180,"Ġwalked":12181,"Ġghost":12182,"ĠBasketball":12183,"ĠCany":12184,"chw":12185,"ĠNad":12186,"Ġguards":12187,"Ġconnects":12188,"ĠDevil":12189,"Ġelevated":12190,"Ġmonastery":12191,"acer":12192,"Ġscreens":12193,"Ġ134":12194,"ĠHelen":12195,"Ġspacecraft":12196,"Ġeligible":12197,"atar":12198,"ĠMut":12199,"ĠBes":12200,"Ġincidents":12201,"Ġradius":12202,"Ġagrees":12203,"Ġconducting":12204,"Ġlinear":12205,"Ġdecisive":12206,"Ã¶r":12207,"ĠJulian":12208,"lined":12209,"ĠSoph":12210,"ĠCond":12211,"aba":12212,"Ġ116":12213,"Ġdistinction":12214,"Ġflower":12215,"Ġgusts":12216,"ĠGothic":12217,"vor":12218,"Ġoct":12219,"ĠHok":12220,"ĠNam":12221,"Ġtrig":12222,"Ġthemed":12223,"Ġpresents":12224,"Ġrefuses":12225,"Ġmotif":12226,"Ġclouds":12227,"lake":12228,"rians":12229,"ubs":12230,"Ġcurved":12231,"Ġposter":12232,"ĠHistorical":12233,"á»ĩ":12234,"opard":12235,"ĠMusical":12236,"Ġrevenge":12237,"Ġtough":12238,"Ġecho":12239,"Ġexterior":12240,"Ġkids":12241,"ĠAngelou":12242,"Ġloose":12243,"Ġconsequence":12244,"Ġaccomplished":12245,"ĠMercury":12246,"ĠTerritory":12247,"ĠCeltic":12248,"ĠBour":12249,"Ġarguments":12250,"Ġphysically":12251,"Ġopined":12252,"Ġintegrated":12253,"Ġproclaimed":12254,"GM":12255,"Ġcemetery":12256,"Ġhosp":12257,"omical":12258,"Ġconvey":12259,"ĠUnd":12260,"izers":12261,"Ġwalks":12262,"ĠAdventure":12263,"Ġritual":12264,"Ġcosm":12265,"ĠSquad":12266,"ĠNass":12267,"Ġcomed":12268,"aults":12269,"ĠChem":12270,"ĠTheodore":12271,"ĠRav":12272,"istical":12273,"Ġparticipating":12274,"ĠNASA":12275,"arians":12276,"abad":12277,"ĠGlou":12278,"Ġcreatures":12279,"Ġlakes":12280,"iffer":12281,"Ġkilometers":12282,"Ġencompass":12283,"ettes":12284,"Ġ1830":12285,"Ġspell":12286,"assic":12287,"Ġrebel":12288,"ĠBulgarian":12289,"Ġintend":12290,"olan":12291,"Ġscout":12292,"Ġindirect":12293,"Ġfinest":12294,"ĠIsab":12295,"Ġvenues":12296,"arthy":12297,"ĠBerm":12298,"ĠChang":12299,"Ġcentimet":12300,"ĠLeo":12301,"Ġtheaters":12302,"ĠPack":12303,"Ġcanon":12304,"Ġdemographic":12305,"ĠDenver":12306,"Ġchann":12307,"reeks":12308,"Ġrunner":12309,"ĠParkway":12310,"Ġwidth":12311,"Ġcomplimented":12312,"ĠCox":12313,"ĠYard":12314,"ĠSolar":12315,"Ġtouc":12316,"ĠAub":12317,"ighed":12318,"Ġ128":12319,"Ġ1875":12320,"Ġmartial":12321,"Ġreminisc":12322,"asia":12323,"Ġspots":12324,"Ġunh":12325,"ĠEnix":12326,"Ġproperly":12327,"Ġceremonies":12328,"ĠRivers":12329,"ogs":12330,"ĠSeb":12331,"Ġpeoples":12332,"Ġlesser":12333,"Ġcontribute":12334,"Ġextends":12335,"ĠCardinals":12336,"Ġdeliberately":12337,"ĠMichaels":12338,"Mc":12339,"itars":12340,"ĠMembers":12341,"Ġenhanced":12342,"ĠAthen":12343,"Ġinsuff":12344,"Ġmarg":12345,"Ġpreparations":12346,"Ġinstructions":12347,"Ġmansion":12348,"Ġintermediate":12349,"Ġcontrad":12350,"Ġprince":12351,"anka":12352,"Ġministers":12353,"Ġvaries":12354,"ĠBarn":12355,"Ġtelesc":12356,"Ġbowled":12357,"arus":12358,"season":12359,"ĠNevada":12360,"And":12361,"His":12362,"ĠRBI":12363,"rium":12364,"Ġyd":12365,"Ġremake":12366,"ĠSalv":12367,"Ġheavier":12368,"Ġtransformed":12369,"ĠTintin":12370,"Ġgram":12371,"Ġsouthwestern":12372,"ĠHerbert":12373,"ĠMetac":12374,"Ġharsh":12375,"ĠKil":12376,"Ġweakness":12377,"Ä«":12378,"ĠTas":12379,"Ġonwards":12380,"Ġplayable":12381,"Ġpossessed":12382,"ĠOttawa":12383,"alymp":12384,"Ġborough":12385,"ĠPick":12386,"Ġ1883":12387,"ĠMillennium":12388,"ĠAlbany":12389,"Ġsensitive":12390,"ĠCircle":12391,"Ġprospect":12392,"ĠHubbard":12393,"ĠâĻ":12394,"Ġcoaches":12395,"Ġcontinental":12396,"Ġassassination":12397,"herent":12398,"eries":12399,"Ġ1881":12400,"Ġupdated":12401,"Ġhurt":12402,"Ġcritically":12403,"Ġachievements":12404,"Ġoptim":12405,"ĠWel":12406,"Ġoutcome":12407,"Ġairborne":12408,"ashire":12409,"Ġinitiative":12410,"Ġfru":12411,"Ġbin":12412,"ĠKra":12413,"Ġrook":12414,"ĠSciences":12415,"Ġlogo":12416,"17":12417,"ho":12418,"Ġaided":12419,"agi":12420,"ĠArc":12421,"ĠMilan":12422,"ĠSmackDown":12423,"ĠBased":12424,"ĠNathan":12425,"Ġallied":12426,"Ġmoist":12427,"Ġvegetation":12428,"Ġpropaganda":12429,"Ġwit":12430,"ĠWinn":12431,"Ġrider":12432,"HC":12433,"ĠMak":12434,"Ġdisabled":12435,"Ġtransmission":12436,"ĠOperations":12437,"Ġvariable":12438,"appa":12439,"Ġtourists":12440,"ĠRomanian":12441,"Ġhomosexual":12442,"Ġconsideration":12443,"ĠMercedes":12444,"IS":12445,"core":12446,"ĠKel":12447,"roduction":12448,"ĠVenice":12449,"Ġconsciousness":12450,"RS":12451,"actic":12452,"ĠMarl":12453,"Ġmonster":12454,"ironments":12455,"Ġemerging":12456,"ĠCarlos":12457,"Ġtom":12458,"Ġestimate":12459,"Ġautobiography":12460,"ĠHum":12461,"ĠLed":12462,"Ġworker":12463,"Ġlandmark":12464,"atorial":12465,"alties":12466,"Ġorchestral":12467,"Ġdeposits":12468,"ĠPolitical":12469,"inus":12470,"Ġspite":12471,"Ġunanim":12472,"Ġdepiction":12473,"Ġpunishment":12474,"Ġpermanently":12475,"Ġexercises":12476,"ĠRonald":12477,"rush":12478,"ĠPoe":12479,"ĠIsles":12480,"Ġdamaging":12481,"Ġsailors":12482,"Ġcomprising":12483,"Ġamphib":12484,"Ġreh":12485,"ĠUnit":12486,"Ġ1869":12487,"Ġmunicipal":12488,"ĠSri":12489,"ĠMult":12490,"Ġascend":12491,"Ġstom":12492,"Ġseal":12493,"ĠParalymp":12494,"Ġnortheastern":12495,"ĠBarcelona":12496,"Ġborders":12497,"Ġconsistently":12498,"Ġdoctrine":12499,"Ġroutine":12500,"ido":12501,"ĠEC":12502,"Ġepit":12503,"Ġsummon":12504,"Ġpref":12505,"Ġpresidency":12506,"Ġmodest":12507,"rington":12508,"Ġenvironments":12509,"Ġlatest":12510,"Ġsubtropical":12511,"ĠJamaica":12512,"sch":12513,"Ġstaged":12514,"ĠFoster":12515,"osc":12516,"Ġperformers":12517,"ĠPercy":12518,"Ġmanaging":12519,"Ġ1866":12520,"Ġjournalists":12521,"Ġsearching":12522,"Ġdock":12523,"ĠFun":12524,"riages":12525,"ĠExpl":12526,"Ġrevealing":12527,"Ġachievement":12528,"ĠArena":12529,"Ġion":12530,"cht":12531,"ĠSprings":12532,"Ġdelegates":12533,"Ġarchaeological":12534,"Like":12535,"Ġhonors":12536,"Ġpayment":12537,"Ġbelonging":12538,"Ġwitnessed":12539,"ĠLancashire":12540,"Ġmysterious":12541,"Ġmarsh":12542,"ĠRosen":12543,"Ġconfer":12544,"ĠKy":12545,"ĠAlam":12546,"ĠWis":12547,"Ġcomplement":12548,"Ġpriority":12549,"Ġ750":12550,"Ġpsychiat":12551,"ĠCanyon":12552,"gor":12553,"ĠVerm":12554,"ĠComposition":12555,"Ġencourage":12556,"Ġinput":12557,"rews":12558,"ĠXI":12559,"arma":12560,"ĠSpeed":12561,"Ġversus":12562,"Ġsilent":12563,"Ġunsuccessfully":12564,"Ġreluctant":12565,"raham":12566,"iang":12567,"Ġmilk":12568,"ĠNorthwest":12569,"Ġdispatched":12570,"Ġenlar":12571,"ĠPowell":12572,"ĠMiddles":12573,"Brien":12574,"ht":12575,"rained":12576,"assed":12577,"ĠCalgary":12578,"Ġlengths":12579,"Ġphilosopher":12580,"Ġphenomenon":12581,"ĠPokÃ©mon":12582,"200":12583,"zig":12584,"Ġgates":12585,"Ġcarved":12586,"Ġpreventing":12587,"Ġventure":12588,"Ġfrigate":12589,"omys":12590,"ĠMig":12591,"ĠPon":12592,"Ġactively":12593,"ĠBlair":12594,"ijing":12595,"Ġbelonged":12596,"RC":12597,"olars":12598,"Ġanarch":12599,"ĠVoy":12600,"Ġargue":12601,"ĠCaes":12602,"ĠIb":12603,"ĠDelta":12604,"Ġplum":12605,"ĠChuck":12606,"Ġ124":12607,"Ġdisputed":12608,"Ġswitched":12609,"cour":12610,"ĠMedic":12611,"Ġhypothesis":12612,"Ġpoverty":12613,"asi":12614,"Ġgest":12615,"Ġcoaching":12616,"ĠEpis":12617,"Ġdistinguish":12618,"isations":12619,"Ġstrange":12620,"Ġceiling":12621,"ĠRichardson":12622,"Ġicon":12623,"ĠPalestine":12624,"Ġcorruption":12625,"Ġscientist":12626,"Ġawareness":12627,"ĠFerdin":12628,"Ġmechanics":12629,"ĠDrake":12630,"Ġexecutives":12631,"stown":12632,"adows":12633,"Ġshaft":12634,"ulture":12635,"Ġfinance":12636,"Ġlistening":12637,"Ġeighteen":12638,"isting":12639,"Ġroot":12640,"ĠHein":12641,"Ġdirections":12642,"ĠGuadal":12643,"Ġintroduce":12644,"ĠAqu":12645,"Ġexploration":12646,"boat":12647,"Ġ1873":12648,"Ġcontributing":12649,"ĠConserv":12650,"Ġexpectations":12651,"Ġvamp":12652,"ĠHenderson":12653,"usty":12654,"Ġabst":12655,"ĠGrove":12656,"Ġov":12657,"alia":12658,"ĠOcc":12659,"Ġrational":12660,"ĠTelegraph":12661,"Ġinternationally":12662,"ĠRodrig":12663,"yd":12664,"eches":12665,"Ġformations":12666,"ĠEmma":12667,"Ġobjectives":12668,"Ġadjust":12669,"BO":12670,"Tunes":12671,"Ġhoney":12672,"ĠMills":12673,"ĠBod":12674,"Ġwhales":12675,"ĠStrong":12676,"Ġaccus":12677,"Ġguitars":12678,"ĠComputer":12679,"ĠDuncan":12680,"Ġprocedure":12681,"Ġmetals":12682,"Ġ1882":12683,"ĠPlanet":12684,"Ġmolecular":12685,"Ġsurpassed":12686,"Ġsib":12687,"idge":12688,"Ġphosph":12689,"nery":12690,"Ġtemples":12691,"Ġdimensional":12692,"ĠDiamond":12693,"Ġnaturally":12694,"Ġmbar":12695,"ĠInside":12696,"Ġadvocated":12697,"ĠFloyd":12698,"Ġimproving":12699,"Ġmystery":12700,"ĠRegion":12701,"Ġ1871":12702,"GB":12703,"ouch":12704,"Ġleagues":12705,"Ġsheet":12706,"Ġ1867":12707,"Ġtribut":12708,"Ġsaving":12709,"ĠFa":12710,"acking":12711,"Ġ202":12712,"Ġdesired":12713,"ĠSeas":12714,"Ġsubmerged":12715,"inqu":12716,"Ġeleph":12717,"ĠWeather":12718,"Ġassociate":12719,"Ġprivile":12720,"Ġoverwhelming":12721,"Ġreop":12722,"Ġstaying":12723,"Ġconvert":12724,"ĠVic":12725,"Ġremind":12726,"Ġshipped":12727,"ĠFilming":12728,"Ġabundant":12729,"ĠColin":12730,"ĠCommons":12731,"ĠBelie":12732,"Ġdiscussing":12733,"Ãł":12734,"Ġunrel":12735,"Ġprocessing":12736,"Ġacceptance":12737,"Ġrequirement":12738,"Ġcubic":12739,"ierra":12740,"erness":12741,"Ġhorsepower":12742,"ĠRaymond":12743,"Ġcomprised":12744,"Ġdive":12745,"ogg":12746,"ĠMarqu":12747,"ĠBeijing":12748,"Over":12749,"US":12750,"Ġtasks":12751,"ĠRaid":12752,"istocr":12753,"Ġreson":12754,"Ã¨re":12755,"Ġrefugees":12756,"PS":12757,"Ġhaz":12758,"amation":12759,"immer":12760,"Ġcameo":12761,"Ġcrucial":12762,"waffe":12763,"Ġcro":12764,"Ġpartners":12765,"Ġlun":12766,"ĠMail":12767,"ĠBody":12768,"angered":12769,"Ġ137":12770,"ĠMega":12771,"Ġexplored":12772,"Ġkeyboard":12773,"Ġcomposers":12774,"ĠManuel":12775,"ĠPine":12776,"Ġrushed":12777,"ĠHeadquarters":12778,"Ġnervous":12779,"ĠAnat":12780,"Ġestates":12781,"Ġgenes":12782,"Ġ1878":12783,"Ġblockade":12784,"Ġcollecting":12785,"Ġloaded":12786,"Ġopinions":12787,"Ġnavigation":12788,"Ġpump":12789,"Ġauthentic":12790,"Ġfragments":12791,"ede":12792,"Ġgran":12793,"Ġspeculated":12794,"Ġchannels":12795,"lay":12796,"Ġadequ":12797,"ĠDeputy":12798,"Ġresemble":12799,"utely":12800,"Ġunre":12801,"Ġperf":12802,"ĠMasters":12803,"Ġundertook":12804,"Will":12805,"Ġmemb":12806,"Ġjaw":12807,"ĠShin":12808,"heads":12809,"Ġsuffer":12810,"ĠMalay":12811,"ĠInsp":12812,"Ġaveraged":12813,"Ġfemin":12814,"Ġphotos":12815,"AL":12816,"ĠHerman":12817,"Ġstair":12818,"avil":12819,"oves":12820,"ĠAngle":12821,"ĠExped":12822,"ĠFilms":12823,"ĠEllen":12824,"Ġimmigrants":12825,"Ġpercussion":12826,"Ġgam":12827,"Ġrepublic":12828,"eded":12829,"ĠRif":12830,"Ġgenera":12831,"Ġhabitats":12832,"Ġturbines":12833,"Ġcompromise":12834,"Ġbars":12835,"elia":12836,"ĠPunk":12837,"Ġwhale":12838,"opol":12839,"ĠColomb":12840,"Ġcomplaints":12841,"Ġmanufactured":12842,"ĠIntellig":12843,"rehensive":12844,"ĠCrystal":12845,"lia":12846,"ĠMile":12847,"iri":12848,"Ġants":12849,"Ġseeds":12850,"Ġassets":12851,"Ġdefenses":12852,"Ġposthum":12853,"Ġfaction":12854,"suing":12855,"ĠDesert":12856,"Ġbench":12857,"thlete":12858,"ikes":12859,"ĠAdela":12860,"Ġpsychological":12861,"Ġfabric":12862,"ĠLeicester":12863,"rection":12864,"Ġsic":12865,"orig":12866,"Ġmanages":12867,"Ġrepet":12868,"Ġmetall":12869,"Ġmant":12870,"Ġensuing":12871,"Ġhomeless":12872,"Ġnetworks":12873,"ĠPersonnel":12874,"Ġconsequences":12875,"Ġlesb":12876,"asaki":12877,"olo":12878,"ĠCloud":12879,"ĠTrinity":12880,"Ġcoastline":12881,"Ġsymbols":12882,"ĠVeronica":12883,"employ":12884,"Ġunderwater":12885,"Ġsummar":12886,"Ġdissolved":12887,"Ġhonorary":12888,"ĠCulture":12889,"Ġreconstruct":12890,"ĠCarn":12891,"Ġabsolute":12892,"otypes":12893,"ĠBaptist":12894,"Ġgauge":12895,"ĠVlad":12896,"Ġups":12897,"Ġbuff":12898,"ĠPlat":12899,"Ġimprov":12900,"Ġlengthy":12901,"Ġfraud":12902,"Ste":12903,"Ġcontempor":12904,"iggins":12905,"Ġeruption":12906,"wyn":12907,"Ġineff":12908,"ĠBass":12909,"Ġrelied":12910,"Ġemig":12911,"Ġbrut":12912,"Ġultimate":12913,"ĠiTunes":12914,"ographed":12915,"Ġgoddess":12916,"mother":12917,"Ġcave":12918,"Ġconsensus":12919,"Ġlandings":12920,"ylum":12921,"Ġsymph":12922,"ĠCut":12923,"iden":12924,"Ġintact":12925,"Ġadds":12926,"ĠFrances":12927,"ĠBerg":12928,"Ġprinting":12929,"ĠPsych":12930,"ĠLuther":12931,"ĠNewman":12932,"Ġloyalty":12933,"Ġfears":12934,"ĠCu":12935,"olith":12936,"Ġvariant":12937,"Ġqualities":12938,"Ġessay":12939,"Ġlemurs":12940,"ĠMetacritic":12941,"No":12942,"yll":12943,"Ãª":12944,"arted":12945,"Ġsingers":12946,"ĠMcN":12947,"ĠLuftwaffe":12948,"Ġol":12949,"ema":12950,"through":12951,"Ġsignals":12952,"otto":12953,"Ġdisappoint":12954,"ĠCrawford":12955,"ĠDudley":12956,"star":12957,"ĠFlanders":12958,"ugs":12959,"Ġreserves":12960,"Ġunveiled":12961,"issa":12962,"Ġassessment":12963,"Ġflesh":12964,"ĠBermuda":12965,"ĠTab":12966,"ady":12967,"imer":12968,"ĠDj":12969,"ĠMethod":12970,"Ġeldest":12971,"fr":12972,"iche":12973,"usive":12974,"ĠSche":12975,"Ġrocket":12976,"ĠMonster":12977,"Ġ1872":12978,"Ġambassador":12979,"ilera":12980,"Ġteachers":12981,"Ġpounder":12982,"Ġduck":12983,"ĠBran":12984,"ĠFur":12985,"ĠEagle":12986,"Ġaristocr":12987,"Ġanthem":12988,"Ġ1868":12989,"ĠStandard":12990,"Ġdoctors":12991,"di":12992,"irk":12993,"Ġdelight":12994,"ĠMcCarthy":12995,"Ġspectators":12996,"Ġinteractions":12997,"Se":12998,"ĠTucker":12999,"ĠCA":13000,"ĠFood":13001,"Ġamid":13002,"Ġmillions":13003,"Ġemotions":13004,"Ġgrossed":13005,"icus":13006,"ĠSyl":13007,"eward":13008,"Ġsear":13009,"ovsky":13010,"Ġcomparing":13011,"Ġweighed":13012,"ĠShan":13013,"licted":13014,"Ġbattlecruisers":13015,"ĠRPG":13016,"ĠSH":13017,"igo":13018,"ĠHass":13019,"ĠWhy":13020,"Ġtwentieth":13021,"Ġliterally":13022,"Ġpatrols":13023,"Ġowing":13024,"Ġinterf":13025,"Ġ123":13026,"auna":13027,"Ġlifted":13028,"Ġbatsman":13029,"Ġhier":13030,"ĠBea":13031,"Ġtradem":13032,"Ġsongwriting":13033,"Ġenormous":13034,"ĠHil":13035,"ĠRange":13036,"Ġchlor":13037,"ĠTrue":13038,"imity":13039,"Ġstabil":13040,"ĠWant":13041,"Ġcostumes":13042,"edar":13043,"stad":13044,"ĠMC":13045,"Ġclip":13046,"Ġengaging":13047,"Ġappealed":13048,"ĠTruman":13049,"ĠWatson":13050,"ĠMull":13051,"ĠPly":13052,"ĠChoice":13053,"monton":13054,"Ġintelligent":13055,"Ġinstructed":13056,"ĠWolver":13057,"Because":13058,"ci":13059,"Ġpolitically":13060,"Ġexplosive":13061,"Ġrally":13062,"Ġdealt":13063,"Ġenrolled":13064,"Ġbacteria":13065,"ĠDakota":13066,"Ġinsufficient":13067,"ĠTotal":13068,"Ġrelating":13069,"ĠFlames":13070,"Ġtrips":13071,"aurus":13072,"Ġrevived":13073,"ĠMachine":13074,"Ġdeals":13075,"neath":13076,"Ġsubd":13077,"uits":13078,"Ġtelev":13079,"Ġreader":13080,"ĠWellington":13081,"bel":13082,"cock":13083,"hand":13084,"Ġtensions":13085,"orge":13086,"Ġsuited":13087,"Ġstrings":13088,"ĠCabinet":13089,"Ġhorizontal":13090,"ĠAlpha":13091,"ĠClif":13092,"Ġdigit":13093,"Ġinstrumentation":13094,"Ġallegations":13095,"lass":13096,"Ġstroke":13097,"keley":13098,"ĠSoviets":13099,"bery":13100,"Ġdiseases":13101,"Ġbitter":13102,"Ġgraphic":13103,"force":13104,"Ġliv":13105,"ĠMobile":13106,"Ġsubordin":13107,"Ġvocalist":13108,"Ġreferee":13109,"Ġcats":13110,"endar":13111,"Ġdeclaration":13112,"Ġextraordin":13113,"ĠGibson":13114,"Ġmushroom":13115,"ĠMVP":13116,"Ġhurricanes":13117,"Ġanx":13118,"Ġslower":13119,"Ġwoods":13120,"Ġintersections":13121,"Ġincomple":13122,"Ġchapters":13123,"ĠShelley":13124,"Ġreminiscent":13125,"ĠSans":13126,"ĠHat":13127,"Ġclan":13128,"Ġwidow":13129,"ĠProfessional":13130,"Ġmissile":13131,"ĠRenaissance":13132,"ĠExpedition":13133,"zo":13134,"alid":13135,"ologically":13136,"Ġtermed":13137,"ĠMonroe":13138,"bus":13139,"ichi":13140,"Ġincred":13141,"Ġinvolve":13142,"Ġexhibited":13143,"othe":13144,"utonium":13145,"Ġcounsel":13146,"ĠWoods":13147,"Ġwishes":13148,"Ġmistake":13149,"Ġtactical":13150,"Ġetc":13151,"ĠUrban":13152,"Ġdiscipline":13153,"ĠAdelaide":13154,"emporary":13155,"ulu":13156,"Ġovercome":13157,"Ġgallery":13158,"Ġdisliked":13159,"nal":13160,"oned":13161,"ulk":13162,"Ġsacrifice":13163,"ĠCM":13164,"odon":13165,"Ġinterference":13166,"ĠMarx":13167,"ĠSurrey":13168,"ĠEssex":13169,"Ġmathematics":13170,"ĠFischer":13171,"ĠâĢ²":13172,"Ġcultures":13173,"Ġharbor":13174,"Ġquantities":13175,"ĠMom":13176,"ĠHerm":13177,"ĠRah":13178,"ĠWings":13179,"ĠGenesis":13180,"ikh":13181,"Ġhung":13182,"Ġhunt":13183,"oline":13184,"Ġshirt":13185,"Ġjoins":13186,"ĠAssist":13187,"ĠTimber":13188,"Ġathletic":13189,"ED":13190,"ĠPent":13191,"odied":13192,"ĠHeaven":13193,"Ġrepaired":13194,"Ġtransit":13195,"ĠMeyer":13196,"Ġthickness":13197,"ĠAguilera":13198,"dam":13199,"Ġfrog":13200,"Ġshar":13201,"ĠMadrid":13202,"Ġrifle":13203,"Ġnomine":13204,"Ġsyndrome":13205,"wind":13206,"orus":13207,"ĠFab":13208,"ĠNewport":13209,"Ġexpense":13210,"ancock":13211,"ĠHenri":13212,"zi":13213,"ĠRNA":13214,"Ġresur":13215,"ebe":13216,"Ġmachinery":13217,"Ġproceeds":13218,"ĠPhillips":13219,"nut":13220,"Ġfir":13221,"Ġmisc":13222,"ĠLore":13223,"Ġcircles":13224,"Ġcaliber":13225,"Ġsupporter":13226,"Ġnicknamed":13227,"Ġfinger":13228,"lend":13229,"erse":13230,"Ġfights":13231,"ĠSurv":13232,"Ġpanels":13233,"ĠMovement":13234,"urers":13235,"Ġassign":13236,"ungle":13237,"OR":13238,"ĠNL":13239,"ĠNak":13240,"Ġspores":13241,"ĠSpit":13242,"Ġimported":13243,"ĠRomans":13244,"icity":13245,"ĠButler":13246,"kinson":13247,"ĠSelena":13248,"Ġmigration":13249,"Ġlocomotive":13250,"Mean":13251,"Ġbol":13252,"Ġwashed":13253,"ĠMk":13254,"ĠPra":13255,"raine":13256,"Ġcontinent":13257,"opsis":13258,"Ġinterviewed":13259,"ĠChandler":13260,"ĠFerdinand":13261,"Pa":13262,"Ġgaming":13263,"Ġhect":13264,"Ġcommentators":13265,"Ġrulers":13266,"Ġcustody":13267,"Ġfatal":13268,"Ġshopping":13269,"Ġfare":13270,"stand":13271,"imir":13272,"ĠBosnia":13273,"ĠChin":13274,"ĠNorse":13275,"Ġfluid":13276,"Ġraw":13277,"Ġproximity":13278,"Ġsect":13279,"ĠHond":13280,"ĠRiley":13281,"Ġjoke":13282,"ĠShar":13283,"Ġbankrupt":13284,"Ġmolecules":13285,"Ġredesign":13286,"Rec":13287,"Ġmim":13288,"ĠAaron":13289,"aston":13290,"pit":13291,"otilla":13292,"Ġbeer":13293,"ĠEsp":13294,"Ġcurrency":13295,"Ear":13296,"athetic":13297,"ĠUB":13298,"zac":13299,"Ġcontested":13300,"ĠAdmiralty":13301,"ĠEngineering":13302,"Ġpronounced":13303,"ĠTasman":13304,"ĠCool":13305,"ĠMoney":13306,"Ġally":13307,"Ġallocated":13308,"Ġundergo":13309,"ashing":13310,"Ġacquire":13311,"ĠLtd":13312,"Ġhatch":13313,"ĠCome":13314,"iday":13315,"ĠGaz":13316,"ĠKem":13317,"ĠHeath":13318,"Ġcurves":13319,"ĠKnights":13320,"ĠVienna":13321,"Ġmaneuver":13322,"ÏĤ":13323,"Ġaviation":13324,"Ġlip":13325,"ĠMick":13326,"Ġsuccessive":13327,"Ġdemanding":13328,"Ġfluor":13329,"ride":13330,"Ġtong":13331,"ĠAviation":13332,"ĠLeigh":13333,"elfth":13334,"Ġknowing":13335,"ĠPublishing":13336,"front":13337,"Ġpuzz":13338,"Ġunaware":13339,"ramid":13340,"Ġzones":13341,"Ġfloors":13342,"itects":13343,"ĠBrew":13344,"urbs":13345,"osity":13346,"ĠAdrian":13347,"Ġseparately":13348,"Ġmemories":13349,"list":13350,"xide":13351,"alysis":13352,"Ġreef":13353,"Ġpreliminary":13354,"ĠCommerc":13355,"ĠSpencer":13356,"Ġgathering":13357,"ĠWool":13358,"umar":13359,"Ġpopulated":13360,"wig":13361,"ĠWald":13362,"Ġdisgu":13363,"ĠLeban":13364,"Ġpublish":13365,"asse":13366,"ĠPrison":13367,"ĠUntil":13368,"Ġinterrupted":13369,"Ġelectro":13370,"Ġ1879":13371,"Ġregardless":13372,"ĠEllis":13373,"ĠFlorence":13374,"rez":13375,"ĠCapital":13376,"Ġdiscussions":13377,"ĠCurtis":13378,"Ġproud":13379,"ĠBlake":13380,"Ġcease":13381,"ĠBurger":13382,"iary":13383,"ĠPi":13384,"Ġscrapped":13385,"Ġnorthwestern":13386,"Ġmassacre":13387,"ĠNobel":13388,"ĠOtto":13389,"ĠArkansas":13390,"Meanwhile":13391,"cious":13392,"Ġdawn":13393,"Ġgolf":13394,"ĠRight":13395,"Ġdamages":13396,"ĠTherefore":13397,"Ġcomparable":13398,"nan":13399,"eria":13400,"Ġscreening":13401,"50":13402,"Bet":13403,"ĠBuch":13404,"Ġchord":13405,"ĠAbraham":13406,"Ġphotographer":13407,"Ġfarms":13408,"Ġdemonstrate":13409,"guard":13410,"Ġdeployment":13411,"Ġbills":13412,"ĠFranco":13413,"Ġadvances":13414,"Ġinstallation":13415,"Ġnineteenth":13416,"Ġcylind":13417,"Ġcylinder":13418,"Ġdiscontinued":13419,"Ġá":13420,"urse":13421,"ĠPoll":13422,"Ġtourism":13423,"Ġeditorial":13424,"Ġhalted":13425,"Ġperpet":13426,"Ġsubsc":13427,"ĠNept":13428,"olves":13429,"ĠBarrett":13430,"Ġpaved":13431,"Ġunrest":13432,"ĠScreen":13433,"Ġediting":13434,"ĠRomania":13435,"Ġdynamic":13436,"Î½":13437,"ĠFellow":13438,"istence":13439,"ĠOw":13440,"ĠWWF":13441,"Ġsew":13442,"ĠPorts":13443,"ĠOrthodox":13444,"ĠTurks":13445,"Ġsubsidi":13446,"ĠBengal":13447,"ĠPreston":13448,"rud":13449,"Ġprotecting":13450,"ĠPerth":13451,"Ġsporting":13452,"ĠGameSpot":13453,"foundland":13454,"Ġtherapy":13455,"atha":13456,"Ġregained":13457,"ĠFergus":13458,"Ġseemingly":13459,"ĠIdol":13460,"Ġgravity":13461,"Ġgrain":13462,"Ġsubtle":13463,"Ġinstruction":13464,"ĠBeginning":13465,"Ġprojected":13466,"ĠMetal":13467,"Ġambitious":13468,"ĠErn":13469,"ĠDaniels":13470,"Ġlicensed":13471,"ĠHawaiian":13472,"ĠFemale":13473,"Ġneighbouring":13474,"Ġuprising":13475,"Bl":13476,"ĠBot":13477,"ĠStories":13478,"ĠVolt":13479,"ĠCapitol":13480,"Ġfunctional":13481,"Ġcitizen":13482,"ĠBaldwin":13483,"ĠCC":13484,"ĠLie":13485,"Ġcreates":13486,"Ġopenly":13487,"Ġlessons":13488,"ĠArchae":13489,"Ġcrowned":13490,"ĠGeoffrey":13491,"Ġadministered":13492,"Mar":13493,"Ġoak":13494,"Ġanger":13495,"ĠSponge":13496,"Ġbusy":13497,"Ġdisputes":13498,"Ġopted":13499,"onnell":13500,"ĠMotor":13501,"ĠTall":13502,"Ġcontracted":13503,"Ġregist":13504,"ĠMaxwell":13505,"Ġjumping":13506,"Ġbarely":13507,"Ġgamb":13508,"ĠHous":13509,"Ġcorridor":13510,"Ġdescended":13511,"ĠJG":13512,"Ġoverh":13513,"ĠShadow":13514,"Ġ270":13515,"Ġdescendants":13516,"ĠSuz":13517,"entric":13518,"ĠWinc":13519,"opal":13520,"Ġjoy":13521,"Ġcaptivity":13522,"Ġmasses":13523,"Ġprivately":13524,"ĠMarcus":13525,"ĠLancaster":13526,"Ġcooperation":13527,"ĠPlymouth":13528,"oub":13529,"ĠMam":13530,"ĠPut":13531,"ĠJen":13532,"ripp":13533,"Ġdeeper":13534,"ĠChase":13535,"Ġcoloured":13536,"blem":13537,"Ġsymmet":13538,"Ġcoalition":13539,"Ġtotally":13540,"ĠSkinner":13541,"eli":13542,"Ġconting":13543,"Ġgenerals":13544,"Ġvolcano":13545,"Ġdelegation":13546,"Ġaccomplish":13547,"Ġorient":13548,"ervers":13549,"Ġfile":13550,"Ġlux":13551,"ĠWrest":13552,"ĠKepler":13553,"Ġnorthwestward":13554,"ĠCircuit":13555,"ĠNav":13556,"Ġquit":13557,"ĠFlood":13558,"Ġplanes":13559,"Ġcollision":13560,"onstruction":13561,"ĠMounted":13562,"Ġ146":13563,"Ġsteady":13564,"ĠMcDonald":13565,"Ġoutdoor":13566,"ĠHancock":13567,"ĠStage":13568,"ĠDrum":13569,"ĠProtection":13570,"isphere":13571,"Ġreiss":13572,"Ġshadow":13573,"Ġrapper":13574,"Ġfarming":13575,"ĠUsher":13576,"Ġatmospheric":13577,"dan":13578,"isa":13579,"ĠNewfoundland":13580,"Ġchess":13581,"lessly":13582,"Ġnecessarily":13583,"Ð°":13584,"Ġinvented":13585,"Ġdelays":13586,"Ġlacks":13587,"ĠSenators":13588,"Ġroller":13589,"Ġibn":13590,"Ġnam":13591,"ĠReading":13592,"uchi":13593,"Ġmutual":13594,"ĠGonz":13595,"Ġeject":13596,"Ġnests":13597,"ĠStore":13598,"Ġdecomp":13599,"Ġsuburb":13600,"Ġcream":13601,"ugu":13602,"Ġpresum":13603,"ĠBuddhist":13604,"mill":13605,"atem":13606,"lew":13607,"ĠBent":13608,"Ġjokes":13609,"aceous":13610,"ĠGeneration":13611,"Ġexcessive":13612,"abet":13613,"Ġdeveloper":13614,"ĠElectronic":13615,"achelor":13616,"ĠBear":13617,"Ġconve":13618,"ĠPlaza":13619,"inae":13620,"Ġtracking":13621,"Ġfatalities":13622,"Ġdeclaring":13623,"ĠAgricult":13624,"ĠFormer":13625,"ĠBeautiful":13626,"ĠKub":13627,"ĠEdmonton":13628,"ĠMotion":13629,"Ġlava":13630,"Ġgreet":13631,"ĠLogan":13632,"ĠReyn":13633,"ĠSuff":13634,"ĠHamb":13635,"ĠFM":13636,"ĠJur":13637,"Ġrelay":13638,"ĠParachute":13639,"Ġkeen":13640,"ĠView":13641,"Ġber":13642,"Ġhur":13643,"ĠOst":13644,"Ġshops":13645,"Ġ149":13646,"ficial":13647,"ĠAdventures":13648,"ĠProductions":13649,"Ġinject":13650,"ĠCrom":13651,"ĠBog":13652,"Ġgains":13653,"Ġteammates":13654,"ĠAllmusic":13655,"ĠGlass":13656,"Ã£o":13657,"ĠTask":13658,"Ġstruggling":13659,"Ġcopyright":13660,"Ġprohibited":13661,"houses":13662,"Con":13663,"Ġpine":13664,"ĠIng":13665,"Ġoperator":13666,"Ġsixty":13667,"Ġrecognize":13668,"Ġkitchen":13669,"Ġunemploy":13670,"Ġdivine":13671,"ĠGarc":13672,"ĠJeremy":13673,"Ġcabin":13674,"Ġstreams":13675,"achi":13676,"Ġhonours":13677,"ĠCommissioner":13678,"graduate":13679,"Ġrealizes":13680,"Ġtrophy":13681,"Ġaggregate":13682,"Ġtum":13683,"isans":13684,"otus":13685,"ĠFras":13686,"ovich":13687,"ĠStarr":13688,"Ġcalm":13689,"Ġdisappear":13690,"Ġpregnancy":13691,"mm":13692,"ĠCN":13693,"Ġbackup":13694,"Ġgenerate":13695,"Ġedges":13696,"ĠAirborne":13697,"Ġfindings":13698,"Ġriff":13699,"Ġeliminate":13700,"Ġauction":13701,"ĠTiger":13702,"ĠRams":13703,"ĠKens":13704,"Ġminim":13705,"Ġruins":13706,"ĠNashville":13707,"ĠCombat":13708,"HA":13709,"mel":13710,"Ġdug":13711,"ĠBron":13712,"ĠEqu":13713,"Ġouts":13714,"Ġstorylines":13715,"ĠSenior":13716,"Ġironcl":13717,"ĠBrigadier":13718,"ocene":13719,"ĠKes":13720,"Ġunst":13721,"ĠOnline":13722,"Ġdraws":13723,"ĠJennifer":13724,"how":13725,"lies":13726,"ilia":13727,"Ġreserved":13728,"Ġsoap":13729,"Ġattractive":13730,"Ġmerchants":13731,"ĠCurrent":13732,"ĠTales":13733,"Ġclay":13734,"ĠSpy":13735,"elfare":13736,"Ġoperas":13737,"Ġparam":13738,"Ġremarkable":13739,"ĠDevon":13740,"ĠChairman":13741,"ĠSierra":13742,"ĠEt":13743,"Ġ1874":13744,"Ġacquisition":13745,"Ġproceedings":13746,"Ġincomplete":13747,"Due":13748,"pat":13749,"Ġexperts":13750,"ĠResident":13751,"Ġcaution":13752,"ĠMake":13753,"Ġsecular":13754,"Ġtransp":13755,"ĠCharacter":13756,"Ġ1848":13757,"Ġunusually":13758,"Ġphilosoph":13759,"holm":13760,"ĠRelations":13761,"Ġsketch":13762,"Ġreversed":13763,"ĠDrama":13764,"ĠHM":13765,"ayette":13766,"Ġspo":13767,"Ġdecomm":13768,"Ġ210":13769,"Ġgrants":13770,"Ġsurfaces":13771,"Ġridic":13772,"ĠPanama":13773,"Ġpackage":13774,"Ġadaptations":13775,"Ġscenario":13776,"Ġmemorable":13777,"Har":13778,"hurst":13779,"letcher":13780,"ĠArchitect":13781,"Ġunpop":13782,"Ġconjunction":13783,"Prior":13784,"pow":13785,"Ġimpress":13786,"ĠMinogue":13787,"Ġfreed":13788,"Ġperfectly":13789,"Ġdors":13790,"ĠChancellor":13791,"Ġprinc":13792,"legiate":13793,"Ġkeeps":13794,"ĠPalmer":13795,"ymn":13796,"Ġtab":13797,"Ġresort":13798,"Ġoverd":13799,"Ġtransc":13800,"ĠÂµ":13801,"Ġrestaurants":13802,"Ġsubstance":13803,"Ġchances":13804,"ĠBusch":13805,"Ġpedest":13806,"py":13807,"Ġtennis":13808,"ndum":13809,"ĠBast":13810,"ĠChall":13811,"ĠGuatem":13812,"rolling":13813,"ĠRhodesia":13814,"Ġsufficiently":13815,"Ġlobby":13816,"ĠSib":13817,"ĠSep":13818,"omes":13819,"ĠLaf":13820,"Ġmetropolitan":13821,"ĠÃģ":13822,"Ġveterans":13823,"rox":13824,"ĠCann":13825,"ĠPale":13826,"ĠSpin":13827,"Ġdetached":13828,"ĠMoz":13829,"Ġemphasized":13830,"Ġmotorway":13831,"ĠIndustrial":13832,"Ġallegedly":13833,"sby":13834,"Ġshed":13835,"ĠTrip":13836,"Ġlifestyle":13837,"Ġworried":13838,"Ġmuzzle":13839,"ĠGrad":13840,"Ġprogression":13841,"ĠMyst":13842,"ĠUsing":13843,"Ġhiding":13844,"ĠDid":13845,"Ġoverth":13846,"Ġassessed":13847,"Ġmodes":13848,"Ġ144":13849,"ĠHergÃ©":13850,"uxili":13851,"Ġtunnels":13852,"net":13853,"ĠMol":13854,"Ġfloating":13855,"Ġpled":13856,"ovo":13857,"ĠSerbs":13858,"ipping":13859,"ĠKoreans":13860,"Ġclimbing":13861,"ĠLynch":13862,"hero":13863,"Ġsin":13864,"Ġdiving":13865,"ĠIC":13866,"Ġtopic":13867,"Ġpostpon":13868,"Ġnights":13869,"Ġincorporates":13870,"ĠTunnel":13871,"ĠPall":13872,"Ġerosion":13873,"Ġdemonstration":13874,"Ġloading":13875,"Ġfestivals":13876,"anan":13877,"rozen":13878,"ĠGust":13879,"Ġmanifest":13880,"ĠManning":13881,"ĠValent":13882,"ĠFinnish":13883,"birds":13884,"post":13885,"ĠHoll":13886,"ĠEU":13887,"istle":13888,"Ġescal":13889,"ĠSoft":13890,"ĠFormula":13891,"brook":13892,"ĠArmenia":13893,"Å¾":13894,"hening":13895,"Ġcoc":13896,"ĠHoff":13897,"Ġsty":13898,"istically":13899,"ĠConsequently":13900,"Ġsynth":13901,"Ġprosecut":13902,"ĠCos":13903,"ĠCant":13904,"imination":13905,"ivic":13906,"ĠRoth":13907,"Ġplutonium":13908,"ibl":13909,"Ġspeeches":13910,"Ġcrust":13911,"Throughout":13912,"ĠSold":13913,"ĠBri":13914,"olades":13915,"ushes":13916,"ĠJunction":13917,"rano":13918,"Ġattachment":13919,"Ġconsul":13920,"Ġcentres":13921,"Ġflee":13922,"ĠLouise":13923,"Ġinvestigated":13924,"Ġcounteratt":13925,"ĠBowie":13926,"Ġmobil":13927,"Ġsupplement":13928,"Ġerrors":13929,"Ġobl":13930,"Ġfloods":13931,"ĠCaroline":13932,"bours":13933,"ĠHip":13934,"Ġrays":13935,"ountain":13936,"Ġamendment":13937,"Ġputs":13938,"ĠBerkeley":13939,"Ġappreciated":13940,"Ġfox":13941,"ĠArctic":13942,"ĠReform":13943,"Ġmodifications":13944,"inguished":13945,"Ġpleasure":13946,"Ġtended":13947,"ĠArabic":13948,"Ġranged":13949,"Ġstance":13950,"Ġwarrant":13951,"Ġinternet":13952,"ĠMaxim":13953,"Ġdiagnosed":13954,"Ġpist":13955,"Ġupgrade":13956,"Ġimmun":13957,"ĠWindsor":13958,"rators":13959,"atri":13960,"Ġhaul":13961,"ĠKiss":13962,"Ġmetab":13963,"ĠHarper":13964,"Ġqualify":13965,"Ġease":13966,"Ġsecuring":13967,"Ġconsent":13968,"Ġintroducing":13969,"official":13970,"Ġinhabited":13971,"Ġnaked":13972,"ĠHab":13973,"antom":13974,"Ġnotion":13975,"Ġincons":13976,"ĠYok":13977,"lesi":13978,"Ġlineup":13979,"Ġmerger":13980,"ĠNotable":13981,"ĠMonday":13982,"ĠBott":13983,"raid":13984,"ĠVern":13985,"Ġgenerations":13986,"ĠAllMusic":13987,"ĠGuards":13988,"ĠParamount":13989,"Ġcameras":13990,"ĠAur":13991,"ĠHeat":13992,"Ġconfined":13993,"ĠHolmes":13994,"Ġthrust":13995,"ĠMaurice":13996,"nam":13997,"Ġinver":13998,"Ġpushing":13999,"ĠSed":14000,"Ġitem":14001,"Ġbutt":14002,"Ġnearest":14003,"Ġcomfortable":14004,"Ġbonds":14005,"apa":14006,"ĠChop":14007,"Ġenable":14008,"Ġthoughts":14009,"ĠContemporary":14010,"erek":14011,"rann":14012,"Ġ280":14013,"Ġreads":14014,"Ġstrengthening":14015,"Ġhamlet":14016,"ĠBroadcasting":14017,"ait":14018,"Ġmaintains":14019,"Ġorgans":14020,"ĠLegion":14021,"ĠIllust":14022,"ĠSoundtrack":14023,"ĠSqu":14024,"ĠCec":14025,"Ġampl":14026,"ĠJanet":14027,"ocaust":14028,"ĠAdvance":14029,"Ġcere":14030,"Ġrevel":14031,"ishi":14032,"overning":14033,"Ġbetray":14034,"ĠShank":14035,"Ġ1851":14036,"ĠSolomon":14037,"RT":14038,"quet":14039,"Ġmuscle":14040,"Ġelectoral":14041,"Ġspeaker":14042,"ĠEmily":14043,"canal":14044,"ĠFinals":14045,"ĠCuban":14046,"Ġelderly":14047,"ĠGriffin":14048,"Ġsoci":14049,"anian":14050,"ogical":14051,
[...]
